node {
  name: "global/Placeholder"
  op: "Placeholder"
  device: "/job:worker/task:0"
  attr {
    key: "_output_shapes"
    value {
      list {
        shape {
          dim {
            size: -1
          }
          dim {
            size: 84
          }
          dim {
            size: 84
          }
          dim {
            size: 4
          }
        }
      }
    }
  }
  attr {
    key: "dtype"
    value {
      type: DT_FLOAT
    }
  }
  attr {
    key: "shape"
    value {
      shape {
        dim {
          size: -1
        }
        dim {
          size: 84
        }
        dim {
          size: 84
        }
        dim {
          size: 4
        }
      }
    }
  }
}
node {
  name: "global/Conv/weights/Initializer/random_uniform/shape"
  op: "Const"
  attr {
    key: "_class"
    value {
      list {
        s: "loc:@global/Conv/weights"
      }
    }
  }
  attr {
    key: "_output_shapes"
    value {
      list {
        shape {
          dim {
            size: 4
          }
        }
      }
    }
  }
  attr {
    key: "dtype"
    value {
      type: DT_INT32
    }
  }
  attr {
    key: "value"
    value {
      tensor {
        dtype: DT_INT32
        tensor_shape {
          dim {
            size: 4
          }
        }
        tensor_content: "\010\000\000\000\010\000\000\000\004\000\000\000 \000\000\000"
      }
    }
  }
}
node {
  name: "global/Conv/weights/Initializer/random_uniform/min"
  op: "Const"
  attr {
    key: "_class"
    value {
      list {
        s: "loc:@global/Conv/weights"
      }
    }
  }
  attr {
    key: "_output_shapes"
    value {
      list {
        shape {
        }
      }
    }
  }
  attr {
    key: "dtype"
    value {
      type: DT_FLOAT
    }
  }
  attr {
    key: "value"
    value {
      tensor {
        dtype: DT_FLOAT
        tensor_shape {
        }
        float_val: -0.05103103816509247
      }
    }
  }
}
node {
  name: "global/Conv/weights/Initializer/random_uniform/max"
  op: "Const"
  attr {
    key: "_class"
    value {
      list {
        s: "loc:@global/Conv/weights"
      }
    }
  }
  attr {
    key: "_output_shapes"
    value {
      list {
        shape {
        }
      }
    }
  }
  attr {
    key: "dtype"
    value {
      type: DT_FLOAT
    }
  }
  attr {
    key: "value"
    value {
      tensor {
        dtype: DT_FLOAT
        tensor_shape {
        }
        float_val: 0.05103103816509247
      }
    }
  }
}
node {
  name: "global/Conv/weights/Initializer/random_uniform/RandomUniform"
  op: "RandomUniform"
  input: "global/Conv/weights/Initializer/random_uniform/shape"
  attr {
    key: "T"
    value {
      type: DT_INT32
    }
  }
  attr {
    key: "_class"
    value {
      list {
        s: "loc:@global/Conv/weights"
      }
    }
  }
  attr {
    key: "_output_shapes"
    value {
      list {
        shape {
          dim {
            size: 8
          }
          dim {
            size: 8
          }
          dim {
            size: 4
          }
          dim {
            size: 32
          }
        }
      }
    }
  }
  attr {
    key: "dtype"
    value {
      type: DT_FLOAT
    }
  }
  attr {
    key: "seed"
    value {
      i: 123
    }
  }
  attr {
    key: "seed2"
    value {
      i: 4
    }
  }
}
node {
  name: "global/Conv/weights/Initializer/random_uniform/sub"
  op: "Sub"
  input: "global/Conv/weights/Initializer/random_uniform/max"
  input: "global/Conv/weights/Initializer/random_uniform/min"
  attr {
    key: "T"
    value {
      type: DT_FLOAT
    }
  }
  attr {
    key: "_class"
    value {
      list {
        s: "loc:@global/Conv/weights"
      }
    }
  }
  attr {
    key: "_output_shapes"
    value {
      list {
        shape {
        }
      }
    }
  }
}
node {
  name: "global/Conv/weights/Initializer/random_uniform/mul"
  op: "Mul"
  input: "global/Conv/weights/Initializer/random_uniform/RandomUniform"
  input: "global/Conv/weights/Initializer/random_uniform/sub"
  attr {
    key: "T"
    value {
      type: DT_FLOAT
    }
  }
  attr {
    key: "_class"
    value {
      list {
        s: "loc:@global/Conv/weights"
      }
    }
  }
  attr {
    key: "_output_shapes"
    value {
      list {
        shape {
          dim {
            size: 8
          }
          dim {
            size: 8
          }
          dim {
            size: 4
          }
          dim {
            size: 32
          }
        }
      }
    }
  }
}
node {
  name: "global/Conv/weights/Initializer/random_uniform"
  op: "Add"
  input: "global/Conv/weights/Initializer/random_uniform/mul"
  input: "global/Conv/weights/Initializer/random_uniform/min"
  attr {
    key: "T"
    value {
      type: DT_FLOAT
    }
  }
  attr {
    key: "_class"
    value {
      list {
        s: "loc:@global/Conv/weights"
      }
    }
  }
  attr {
    key: "_output_shapes"
    value {
      list {
        shape {
          dim {
            size: 8
          }
          dim {
            size: 8
          }
          dim {
            size: 4
          }
          dim {
            size: 32
          }
        }
      }
    }
  }
}
node {
  name: "global/Conv/weights"
  op: "VariableV2"
  device: "/job:ps/task:0"
  attr {
    key: "_class"
    value {
      list {
        s: "loc:@global/Conv/weights"
      }
    }
  }
  attr {
    key: "_output_shapes"
    value {
      list {
        shape {
          dim {
            size: 8
          }
          dim {
            size: 8
          }
          dim {
            size: 4
          }
          dim {
            size: 32
          }
        }
      }
    }
  }
  attr {
    key: "container"
    value {
      s: ""
    }
  }
  attr {
    key: "dtype"
    value {
      type: DT_FLOAT
    }
  }
  attr {
    key: "shape"
    value {
      shape {
        dim {
          size: 8
        }
        dim {
          size: 8
        }
        dim {
          size: 4
        }
        dim {
          size: 32
        }
      }
    }
  }
  attr {
    key: "shared_name"
    value {
      s: ""
    }
  }
}
node {
  name: "global/Conv/weights/Assign"
  op: "Assign"
  input: "global/Conv/weights"
  input: "global/Conv/weights/Initializer/random_uniform"
  device: "/job:ps/task:0"
  attr {
    key: "T"
    value {
      type: DT_FLOAT
    }
  }
  attr {
    key: "_class"
    value {
      list {
        s: "loc:@global/Conv/weights"
      }
    }
  }
  attr {
    key: "_output_shapes"
    value {
      list {
        shape {
          dim {
            size: 8
          }
          dim {
            size: 8
          }
          dim {
            size: 4
          }
          dim {
            size: 32
          }
        }
      }
    }
  }
  attr {
    key: "use_locking"
    value {
      b: true
    }
  }
  attr {
    key: "validate_shape"
    value {
      b: true
    }
  }
}
node {
  name: "global/Conv/weights/read"
  op: "Identity"
  input: "global/Conv/weights"
  device: "/job:ps/task:0"
  attr {
    key: "T"
    value {
      type: DT_FLOAT
    }
  }
  attr {
    key: "_class"
    value {
      list {
        s: "loc:@global/Conv/weights"
      }
    }
  }
  attr {
    key: "_output_shapes"
    value {
      list {
        shape {
          dim {
            size: 8
          }
          dim {
            size: 8
          }
          dim {
            size: 4
          }
          dim {
            size: 32
          }
        }
      }
    }
  }
}
node {
  name: "global/Conv/biases/Initializer/zeros"
  op: "Const"
  attr {
    key: "_class"
    value {
      list {
        s: "loc:@global/Conv/biases"
      }
    }
  }
  attr {
    key: "_output_shapes"
    value {
      list {
        shape {
          dim {
            size: 32
          }
        }
      }
    }
  }
  attr {
    key: "dtype"
    value {
      type: DT_FLOAT
    }
  }
  attr {
    key: "value"
    value {
      tensor {
        dtype: DT_FLOAT
        tensor_shape {
          dim {
            size: 32
          }
        }
        float_val: 0.0
      }
    }
  }
}
node {
  name: "global/Conv/biases"
  op: "VariableV2"
  device: "/job:ps/task:0"
  attr {
    key: "_class"
    value {
      list {
        s: "loc:@global/Conv/biases"
      }
    }
  }
  attr {
    key: "_output_shapes"
    value {
      list {
        shape {
          dim {
            size: 32
          }
        }
      }
    }
  }
  attr {
    key: "container"
    value {
      s: ""
    }
  }
  attr {
    key: "dtype"
    value {
      type: DT_FLOAT
    }
  }
  attr {
    key: "shape"
    value {
      shape {
        dim {
          size: 32
        }
      }
    }
  }
  attr {
    key: "shared_name"
    value {
      s: ""
    }
  }
}
node {
  name: "global/Conv/biases/Assign"
  op: "Assign"
  input: "global/Conv/biases"
  input: "global/Conv/biases/Initializer/zeros"
  device: "/job:ps/task:0"
  attr {
    key: "T"
    value {
      type: DT_FLOAT
    }
  }
  attr {
    key: "_class"
    value {
      list {
        s: "loc:@global/Conv/biases"
      }
    }
  }
  attr {
    key: "_output_shapes"
    value {
      list {
        shape {
          dim {
            size: 32
          }
        }
      }
    }
  }
  attr {
    key: "use_locking"
    value {
      b: true
    }
  }
  attr {
    key: "validate_shape"
    value {
      b: true
    }
  }
}
node {
  name: "global/Conv/biases/read"
  op: "Identity"
  input: "global/Conv/biases"
  device: "/job:ps/task:0"
  attr {
    key: "T"
    value {
      type: DT_FLOAT
    }
  }
  attr {
    key: "_class"
    value {
      list {
        s: "loc:@global/Conv/biases"
      }
    }
  }
  attr {
    key: "_output_shapes"
    value {
      list {
        shape {
          dim {
            size: 32
          }
        }
      }
    }
  }
}
node {
  name: "global/Conv/dilation_rate"
  op: "Const"
  device: "/job:worker/task:0"
  attr {
    key: "_output_shapes"
    value {
      list {
        shape {
          dim {
            size: 2
          }
        }
      }
    }
  }
  attr {
    key: "dtype"
    value {
      type: DT_INT32
    }
  }
  attr {
    key: "value"
    value {
      tensor {
        dtype: DT_INT32
        tensor_shape {
          dim {
            size: 2
          }
        }
        tensor_content: "\001\000\000\000\001\000\000\000"
      }
    }
  }
}
node {
  name: "global/Conv/Conv2D"
  op: "Conv2D"
  input: "global/Placeholder"
  input: "global/Conv/weights/read"
  device: "/job:worker/task:0"
  attr {
    key: "T"
    value {
      type: DT_FLOAT
    }
  }
  attr {
    key: "_output_shapes"
    value {
      list {
        shape {
          dim {
            size: -1
          }
          dim {
            size: 21
          }
          dim {
            size: 21
          }
          dim {
            size: 32
          }
        }
      }
    }
  }
  attr {
    key: "data_format"
    value {
      s: "NHWC"
    }
  }
  attr {
    key: "padding"
    value {
      s: "SAME"
    }
  }
  attr {
    key: "strides"
    value {
      list {
        i: 1
        i: 4
        i: 4
        i: 1
      }
    }
  }
  attr {
    key: "use_cudnn_on_gpu"
    value {
      b: true
    }
  }
}
node {
  name: "global/Conv/BiasAdd"
  op: "BiasAdd"
  input: "global/Conv/Conv2D"
  input: "global/Conv/biases/read"
  device: "/job:worker/task:0"
  attr {
    key: "T"
    value {
      type: DT_FLOAT
    }
  }
  attr {
    key: "_output_shapes"
    value {
      list {
        shape {
          dim {
            size: -1
          }
          dim {
            size: 21
          }
          dim {
            size: 21
          }
          dim {
            size: 32
          }
        }
      }
    }
  }
  attr {
    key: "data_format"
    value {
      s: "NHWC"
    }
  }
}
node {
  name: "global/Conv/Relu"
  op: "Relu"
  input: "global/Conv/BiasAdd"
  device: "/job:worker/task:0"
  attr {
    key: "T"
    value {
      type: DT_FLOAT
    }
  }
  attr {
    key: "_output_shapes"
    value {
      list {
        shape {
          dim {
            size: -1
          }
          dim {
            size: 21
          }
          dim {
            size: 21
          }
          dim {
            size: 32
          }
        }
      }
    }
  }
}
node {
  name: "global/Conv_1/weights/Initializer/random_uniform/shape"
  op: "Const"
  attr {
    key: "_class"
    value {
      list {
        s: "loc:@global/Conv_1/weights"
      }
    }
  }
  attr {
    key: "_output_shapes"
    value {
      list {
        shape {
          dim {
            size: 4
          }
        }
      }
    }
  }
  attr {
    key: "dtype"
    value {
      type: DT_INT32
    }
  }
  attr {
    key: "value"
    value {
      tensor {
        dtype: DT_INT32
        tensor_shape {
          dim {
            size: 4
          }
        }
        tensor_content: "\004\000\000\000\004\000\000\000 \000\000\000@\000\000\000"
      }
    }
  }
}
node {
  name: "global/Conv_1/weights/Initializer/random_uniform/min"
  op: "Const"
  attr {
    key: "_class"
    value {
      list {
        s: "loc:@global/Conv_1/weights"
      }
    }
  }
  attr {
    key: "_output_shapes"
    value {
      list {
        shape {
        }
      }
    }
  }
  attr {
    key: "dtype"
    value {
      type: DT_FLOAT
    }
  }
  attr {
    key: "value"
    value {
      tensor {
        dtype: DT_FLOAT
        tensor_shape {
        }
        float_val: -0.0625
      }
    }
  }
}
node {
  name: "global/Conv_1/weights/Initializer/random_uniform/max"
  op: "Const"
  attr {
    key: "_class"
    value {
      list {
        s: "loc:@global/Conv_1/weights"
      }
    }
  }
  attr {
    key: "_output_shapes"
    value {
      list {
        shape {
        }
      }
    }
  }
  attr {
    key: "dtype"
    value {
      type: DT_FLOAT
    }
  }
  attr {
    key: "value"
    value {
      tensor {
        dtype: DT_FLOAT
        tensor_shape {
        }
        float_val: 0.0625
      }
    }
  }
}
node {
  name: "global/Conv_1/weights/Initializer/random_uniform/RandomUniform"
  op: "RandomUniform"
  input: "global/Conv_1/weights/Initializer/random_uniform/shape"
  attr {
    key: "T"
    value {
      type: DT_INT32
    }
  }
  attr {
    key: "_class"
    value {
      list {
        s: "loc:@global/Conv_1/weights"
      }
    }
  }
  attr {
    key: "_output_shapes"
    value {
      list {
        shape {
          dim {
            size: 4
          }
          dim {
            size: 4
          }
          dim {
            size: 32
          }
          dim {
            size: 64
          }
        }
      }
    }
  }
  attr {
    key: "dtype"
    value {
      type: DT_FLOAT
    }
  }
  attr {
    key: "seed"
    value {
      i: 123
    }
  }
  attr {
    key: "seed2"
    value {
      i: 22
    }
  }
}
node {
  name: "global/Conv_1/weights/Initializer/random_uniform/sub"
  op: "Sub"
  input: "global/Conv_1/weights/Initializer/random_uniform/max"
  input: "global/Conv_1/weights/Initializer/random_uniform/min"
  attr {
    key: "T"
    value {
      type: DT_FLOAT
    }
  }
  attr {
    key: "_class"
    value {
      list {
        s: "loc:@global/Conv_1/weights"
      }
    }
  }
  attr {
    key: "_output_shapes"
    value {
      list {
        shape {
        }
      }
    }
  }
}
node {
  name: "global/Conv_1/weights/Initializer/random_uniform/mul"
  op: "Mul"
  input: "global/Conv_1/weights/Initializer/random_uniform/RandomUniform"
  input: "global/Conv_1/weights/Initializer/random_uniform/sub"
  attr {
    key: "T"
    value {
      type: DT_FLOAT
    }
  }
  attr {
    key: "_class"
    value {
      list {
        s: "loc:@global/Conv_1/weights"
      }
    }
  }
  attr {
    key: "_output_shapes"
    value {
      list {
        shape {
          dim {
            size: 4
          }
          dim {
            size: 4
          }
          dim {
            size: 32
          }
          dim {
            size: 64
          }
        }
      }
    }
  }
}
node {
  name: "global/Conv_1/weights/Initializer/random_uniform"
  op: "Add"
  input: "global/Conv_1/weights/Initializer/random_uniform/mul"
  input: "global/Conv_1/weights/Initializer/random_uniform/min"
  attr {
    key: "T"
    value {
      type: DT_FLOAT
    }
  }
  attr {
    key: "_class"
    value {
      list {
        s: "loc:@global/Conv_1/weights"
      }
    }
  }
  attr {
    key: "_output_shapes"
    value {
      list {
        shape {
          dim {
            size: 4
          }
          dim {
            size: 4
          }
          dim {
            size: 32
          }
          dim {
            size: 64
          }
        }
      }
    }
  }
}
node {
  name: "global/Conv_1/weights"
  op: "VariableV2"
  device: "/job:ps/task:0"
  attr {
    key: "_class"
    value {
      list {
        s: "loc:@global/Conv_1/weights"
      }
    }
  }
  attr {
    key: "_output_shapes"
    value {
      list {
        shape {
          dim {
            size: 4
          }
          dim {
            size: 4
          }
          dim {
            size: 32
          }
          dim {
            size: 64
          }
        }
      }
    }
  }
  attr {
    key: "container"
    value {
      s: ""
    }
  }
  attr {
    key: "dtype"
    value {
      type: DT_FLOAT
    }
  }
  attr {
    key: "shape"
    value {
      shape {
        dim {
          size: 4
        }
        dim {
          size: 4
        }
        dim {
          size: 32
        }
        dim {
          size: 64
        }
      }
    }
  }
  attr {
    key: "shared_name"
    value {
      s: ""
    }
  }
}
node {
  name: "global/Conv_1/weights/Assign"
  op: "Assign"
  input: "global/Conv_1/weights"
  input: "global/Conv_1/weights/Initializer/random_uniform"
  device: "/job:ps/task:0"
  attr {
    key: "T"
    value {
      type: DT_FLOAT
    }
  }
  attr {
    key: "_class"
    value {
      list {
        s: "loc:@global/Conv_1/weights"
      }
    }
  }
  attr {
    key: "_output_shapes"
    value {
      list {
        shape {
          dim {
            size: 4
          }
          dim {
            size: 4
          }
          dim {
            size: 32
          }
          dim {
            size: 64
          }
        }
      }
    }
  }
  attr {
    key: "use_locking"
    value {
      b: true
    }
  }
  attr {
    key: "validate_shape"
    value {
      b: true
    }
  }
}
node {
  name: "global/Conv_1/weights/read"
  op: "Identity"
  input: "global/Conv_1/weights"
  device: "/job:ps/task:0"
  attr {
    key: "T"
    value {
      type: DT_FLOAT
    }
  }
  attr {
    key: "_class"
    value {
      list {
        s: "loc:@global/Conv_1/weights"
      }
    }
  }
  attr {
    key: "_output_shapes"
    value {
      list {
        shape {
          dim {
            size: 4
          }
          dim {
            size: 4
          }
          dim {
            size: 32
          }
          dim {
            size: 64
          }
        }
      }
    }
  }
}
node {
  name: "global/Conv_1/biases/Initializer/zeros"
  op: "Const"
  attr {
    key: "_class"
    value {
      list {
        s: "loc:@global/Conv_1/biases"
      }
    }
  }
  attr {
    key: "_output_shapes"
    value {
      list {
        shape {
          dim {
            size: 64
          }
        }
      }
    }
  }
  attr {
    key: "dtype"
    value {
      type: DT_FLOAT
    }
  }
  attr {
    key: "value"
    value {
      tensor {
        dtype: DT_FLOAT
        tensor_shape {
          dim {
            size: 64
          }
        }
        float_val: 0.0
      }
    }
  }
}
node {
  name: "global/Conv_1/biases"
  op: "VariableV2"
  device: "/job:ps/task:0"
  attr {
    key: "_class"
    value {
      list {
        s: "loc:@global/Conv_1/biases"
      }
    }
  }
  attr {
    key: "_output_shapes"
    value {
      list {
        shape {
          dim {
            size: 64
          }
        }
      }
    }
  }
  attr {
    key: "container"
    value {
      s: ""
    }
  }
  attr {
    key: "dtype"
    value {
      type: DT_FLOAT
    }
  }
  attr {
    key: "shape"
    value {
      shape {
        dim {
          size: 64
        }
      }
    }
  }
  attr {
    key: "shared_name"
    value {
      s: ""
    }
  }
}
node {
  name: "global/Conv_1/biases/Assign"
  op: "Assign"
  input: "global/Conv_1/biases"
  input: "global/Conv_1/biases/Initializer/zeros"
  device: "/job:ps/task:0"
  attr {
    key: "T"
    value {
      type: DT_FLOAT
    }
  }
  attr {
    key: "_class"
    value {
      list {
        s: "loc:@global/Conv_1/biases"
      }
    }
  }
  attr {
    key: "_output_shapes"
    value {
      list {
        shape {
          dim {
            size: 64
          }
        }
      }
    }
  }
  attr {
    key: "use_locking"
    value {
      b: true
    }
  }
  attr {
    key: "validate_shape"
    value {
      b: true
    }
  }
}
node {
  name: "global/Conv_1/biases/read"
  op: "Identity"
  input: "global/Conv_1/biases"
  device: "/job:ps/task:0"
  attr {
    key: "T"
    value {
      type: DT_FLOAT
    }
  }
  attr {
    key: "_class"
    value {
      list {
        s: "loc:@global/Conv_1/biases"
      }
    }
  }
  attr {
    key: "_output_shapes"
    value {
      list {
        shape {
          dim {
            size: 64
          }
        }
      }
    }
  }
}
node {
  name: "global/Conv_1/dilation_rate"
  op: "Const"
  device: "/job:worker/task:0"
  attr {
    key: "_output_shapes"
    value {
      list {
        shape {
          dim {
            size: 2
          }
        }
      }
    }
  }
  attr {
    key: "dtype"
    value {
      type: DT_INT32
    }
  }
  attr {
    key: "value"
    value {
      tensor {
        dtype: DT_INT32
        tensor_shape {
          dim {
            size: 2
          }
        }
        tensor_content: "\001\000\000\000\001\000\000\000"
      }
    }
  }
}
node {
  name: "global/Conv_1/Conv2D"
  op: "Conv2D"
  input: "global/Conv/Relu"
  input: "global/Conv_1/weights/read"
  device: "/job:worker/task:0"
  attr {
    key: "T"
    value {
      type: DT_FLOAT
    }
  }
  attr {
    key: "_output_shapes"
    value {
      list {
        shape {
          dim {
            size: -1
          }
          dim {
            size: 11
          }
          dim {
            size: 11
          }
          dim {
            size: 64
          }
        }
      }
    }
  }
  attr {
    key: "data_format"
    value {
      s: "NHWC"
    }
  }
  attr {
    key: "padding"
    value {
      s: "SAME"
    }
  }
  attr {
    key: "strides"
    value {
      list {
        i: 1
        i: 2
        i: 2
        i: 1
      }
    }
  }
  attr {
    key: "use_cudnn_on_gpu"
    value {
      b: true
    }
  }
}
node {
  name: "global/Conv_1/BiasAdd"
  op: "BiasAdd"
  input: "global/Conv_1/Conv2D"
  input: "global/Conv_1/biases/read"
  device: "/job:worker/task:0"
  attr {
    key: "T"
    value {
      type: DT_FLOAT
    }
  }
  attr {
    key: "_output_shapes"
    value {
      list {
        shape {
          dim {
            size: -1
          }
          dim {
            size: 11
          }
          dim {
            size: 11
          }
          dim {
            size: 64
          }
        }
      }
    }
  }
  attr {
    key: "data_format"
    value {
      s: "NHWC"
    }
  }
}
node {
  name: "global/Conv_1/Relu"
  op: "Relu"
  input: "global/Conv_1/BiasAdd"
  device: "/job:worker/task:0"
  attr {
    key: "T"
    value {
      type: DT_FLOAT
    }
  }
  attr {
    key: "_output_shapes"
    value {
      list {
        shape {
          dim {
            size: -1
          }
          dim {
            size: 11
          }
          dim {
            size: 11
          }
          dim {
            size: 64
          }
        }
      }
    }
  }
}
node {
  name: "global/Conv_2/weights/Initializer/random_uniform/shape"
  op: "Const"
  attr {
    key: "_class"
    value {
      list {
        s: "loc:@global/Conv_2/weights"
      }
    }
  }
  attr {
    key: "_output_shapes"
    value {
      list {
        shape {
          dim {
            size: 4
          }
        }
      }
    }
  }
  attr {
    key: "dtype"
    value {
      type: DT_INT32
    }
  }
  attr {
    key: "value"
    value {
      tensor {
        dtype: DT_INT32
        tensor_shape {
          dim {
            size: 4
          }
        }
        tensor_content: "\003\000\000\000\003\000\000\000@\000\000\000@\000\000\000"
      }
    }
  }
}
node {
  name: "global/Conv_2/weights/Initializer/random_uniform/min"
  op: "Const"
  attr {
    key: "_class"
    value {
      list {
        s: "loc:@global/Conv_2/weights"
      }
    }
  }
  attr {
    key: "_output_shapes"
    value {
      list {
        shape {
        }
      }
    }
  }
  attr {
    key: "dtype"
    value {
      type: DT_FLOAT
    }
  }
  attr {
    key: "value"
    value {
      tensor {
        dtype: DT_FLOAT
        tensor_shape {
        }
        float_val: -0.07216878235340118
      }
    }
  }
}
node {
  name: "global/Conv_2/weights/Initializer/random_uniform/max"
  op: "Const"
  attr {
    key: "_class"
    value {
      list {
        s: "loc:@global/Conv_2/weights"
      }
    }
  }
  attr {
    key: "_output_shapes"
    value {
      list {
        shape {
        }
      }
    }
  }
  attr {
    key: "dtype"
    value {
      type: DT_FLOAT
    }
  }
  attr {
    key: "value"
    value {
      tensor {
        dtype: DT_FLOAT
        tensor_shape {
        }
        float_val: 0.07216878235340118
      }
    }
  }
}
node {
  name: "global/Conv_2/weights/Initializer/random_uniform/RandomUniform"
  op: "RandomUniform"
  input: "global/Conv_2/weights/Initializer/random_uniform/shape"
  attr {
    key: "T"
    value {
      type: DT_INT32
    }
  }
  attr {
    key: "_class"
    value {
      list {
        s: "loc:@global/Conv_2/weights"
      }
    }
  }
  attr {
    key: "_output_shapes"
    value {
      list {
        shape {
          dim {
            size: 3
          }
          dim {
            size: 3
          }
          dim {
            size: 64
          }
          dim {
            size: 64
          }
        }
      }
    }
  }
  attr {
    key: "dtype"
    value {
      type: DT_FLOAT
    }
  }
  attr {
    key: "seed"
    value {
      i: 123
    }
  }
  attr {
    key: "seed2"
    value {
      i: 40
    }
  }
}
node {
  name: "global/Conv_2/weights/Initializer/random_uniform/sub"
  op: "Sub"
  input: "global/Conv_2/weights/Initializer/random_uniform/max"
  input: "global/Conv_2/weights/Initializer/random_uniform/min"
  attr {
    key: "T"
    value {
      type: DT_FLOAT
    }
  }
  attr {
    key: "_class"
    value {
      list {
        s: "loc:@global/Conv_2/weights"
      }
    }
  }
  attr {
    key: "_output_shapes"
    value {
      list {
        shape {
        }
      }
    }
  }
}
node {
  name: "global/Conv_2/weights/Initializer/random_uniform/mul"
  op: "Mul"
  input: "global/Conv_2/weights/Initializer/random_uniform/RandomUniform"
  input: "global/Conv_2/weights/Initializer/random_uniform/sub"
  attr {
    key: "T"
    value {
      type: DT_FLOAT
    }
  }
  attr {
    key: "_class"
    value {
      list {
        s: "loc:@global/Conv_2/weights"
      }
    }
  }
  attr {
    key: "_output_shapes"
    value {
      list {
        shape {
          dim {
            size: 3
          }
          dim {
            size: 3
          }
          dim {
            size: 64
          }
          dim {
            size: 64
          }
        }
      }
    }
  }
}
node {
  name: "global/Conv_2/weights/Initializer/random_uniform"
  op: "Add"
  input: "global/Conv_2/weights/Initializer/random_uniform/mul"
  input: "global/Conv_2/weights/Initializer/random_uniform/min"
  attr {
    key: "T"
    value {
      type: DT_FLOAT
    }
  }
  attr {
    key: "_class"
    value {
      list {
        s: "loc:@global/Conv_2/weights"
      }
    }
  }
  attr {
    key: "_output_shapes"
    value {
      list {
        shape {
          dim {
            size: 3
          }
          dim {
            size: 3
          }
          dim {
            size: 64
          }
          dim {
            size: 64
          }
        }
      }
    }
  }
}
node {
  name: "global/Conv_2/weights"
  op: "VariableV2"
  device: "/job:ps/task:0"
  attr {
    key: "_class"
    value {
      list {
        s: "loc:@global/Conv_2/weights"
      }
    }
  }
  attr {
    key: "_output_shapes"
    value {
      list {
        shape {
          dim {
            size: 3
          }
          dim {
            size: 3
          }
          dim {
            size: 64
          }
          dim {
            size: 64
          }
        }
      }
    }
  }
  attr {
    key: "container"
    value {
      s: ""
    }
  }
  attr {
    key: "dtype"
    value {
      type: DT_FLOAT
    }
  }
  attr {
    key: "shape"
    value {
      shape {
        dim {
          size: 3
        }
        dim {
          size: 3
        }
        dim {
          size: 64
        }
        dim {
          size: 64
        }
      }
    }
  }
  attr {
    key: "shared_name"
    value {
      s: ""
    }
  }
}
node {
  name: "global/Conv_2/weights/Assign"
  op: "Assign"
  input: "global/Conv_2/weights"
  input: "global/Conv_2/weights/Initializer/random_uniform"
  device: "/job:ps/task:0"
  attr {
    key: "T"
    value {
      type: DT_FLOAT
    }
  }
  attr {
    key: "_class"
    value {
      list {
        s: "loc:@global/Conv_2/weights"
      }
    }
  }
  attr {
    key: "_output_shapes"
    value {
      list {
        shape {
          dim {
            size: 3
          }
          dim {
            size: 3
          }
          dim {
            size: 64
          }
          dim {
            size: 64
          }
        }
      }
    }
  }
  attr {
    key: "use_locking"
    value {
      b: true
    }
  }
  attr {
    key: "validate_shape"
    value {
      b: true
    }
  }
}
node {
  name: "global/Conv_2/weights/read"
  op: "Identity"
  input: "global/Conv_2/weights"
  device: "/job:ps/task:0"
  attr {
    key: "T"
    value {
      type: DT_FLOAT
    }
  }
  attr {
    key: "_class"
    value {
      list {
        s: "loc:@global/Conv_2/weights"
      }
    }
  }
  attr {
    key: "_output_shapes"
    value {
      list {
        shape {
          dim {
            size: 3
          }
          dim {
            size: 3
          }
          dim {
            size: 64
          }
          dim {
            size: 64
          }
        }
      }
    }
  }
}
node {
  name: "global/Conv_2/biases/Initializer/zeros"
  op: "Const"
  attr {
    key: "_class"
    value {
      list {
        s: "loc:@global/Conv_2/biases"
      }
    }
  }
  attr {
    key: "_output_shapes"
    value {
      list {
        shape {
          dim {
            size: 64
          }
        }
      }
    }
  }
  attr {
    key: "dtype"
    value {
      type: DT_FLOAT
    }
  }
  attr {
    key: "value"
    value {
      tensor {
        dtype: DT_FLOAT
        tensor_shape {
          dim {
            size: 64
          }
        }
        float_val: 0.0
      }
    }
  }
}
node {
  name: "global/Conv_2/biases"
  op: "VariableV2"
  device: "/job:ps/task:0"
  attr {
    key: "_class"
    value {
      list {
        s: "loc:@global/Conv_2/biases"
      }
    }
  }
  attr {
    key: "_output_shapes"
    value {
      list {
        shape {
          dim {
            size: 64
          }
        }
      }
    }
  }
  attr {
    key: "container"
    value {
      s: ""
    }
  }
  attr {
    key: "dtype"
    value {
      type: DT_FLOAT
    }
  }
  attr {
    key: "shape"
    value {
      shape {
        dim {
          size: 64
        }
      }
    }
  }
  attr {
    key: "shared_name"
    value {
      s: ""
    }
  }
}
node {
  name: "global/Conv_2/biases/Assign"
  op: "Assign"
  input: "global/Conv_2/biases"
  input: "global/Conv_2/biases/Initializer/zeros"
  device: "/job:ps/task:0"
  attr {
    key: "T"
    value {
      type: DT_FLOAT
    }
  }
  attr {
    key: "_class"
    value {
      list {
        s: "loc:@global/Conv_2/biases"
      }
    }
  }
  attr {
    key: "_output_shapes"
    value {
      list {
        shape {
          dim {
            size: 64
          }
        }
      }
    }
  }
  attr {
    key: "use_locking"
    value {
      b: true
    }
  }
  attr {
    key: "validate_shape"
    value {
      b: true
    }
  }
}
node {
  name: "global/Conv_2/biases/read"
  op: "Identity"
  input: "global/Conv_2/biases"
  device: "/job:ps/task:0"
  attr {
    key: "T"
    value {
      type: DT_FLOAT
    }
  }
  attr {
    key: "_class"
    value {
      list {
        s: "loc:@global/Conv_2/biases"
      }
    }
  }
  attr {
    key: "_output_shapes"
    value {
      list {
        shape {
          dim {
            size: 64
          }
        }
      }
    }
  }
}
node {
  name: "global/Conv_2/dilation_rate"
  op: "Const"
  device: "/job:worker/task:0"
  attr {
    key: "_output_shapes"
    value {
      list {
        shape {
          dim {
            size: 2
          }
        }
      }
    }
  }
  attr {
    key: "dtype"
    value {
      type: DT_INT32
    }
  }
  attr {
    key: "value"
    value {
      tensor {
        dtype: DT_INT32
        tensor_shape {
          dim {
            size: 2
          }
        }
        tensor_content: "\001\000\000\000\001\000\000\000"
      }
    }
  }
}
node {
  name: "global/Conv_2/Conv2D"
  op: "Conv2D"
  input: "global/Conv_1/Relu"
  input: "global/Conv_2/weights/read"
  device: "/job:worker/task:0"
  attr {
    key: "T"
    value {
      type: DT_FLOAT
    }
  }
  attr {
    key: "_output_shapes"
    value {
      list {
        shape {
          dim {
            size: -1
          }
          dim {
            size: 11
          }
          dim {
            size: 11
          }
          dim {
            size: 64
          }
        }
      }
    }
  }
  attr {
    key: "data_format"
    value {
      s: "NHWC"
    }
  }
  attr {
    key: "padding"
    value {
      s: "SAME"
    }
  }
  attr {
    key: "strides"
    value {
      list {
        i: 1
        i: 1
        i: 1
        i: 1
      }
    }
  }
  attr {
    key: "use_cudnn_on_gpu"
    value {
      b: true
    }
  }
}
node {
  name: "global/Conv_2/BiasAdd"
  op: "BiasAdd"
  input: "global/Conv_2/Conv2D"
  input: "global/Conv_2/biases/read"
  device: "/job:worker/task:0"
  attr {
    key: "T"
    value {
      type: DT_FLOAT
    }
  }
  attr {
    key: "_output_shapes"
    value {
      list {
        shape {
          dim {
            size: -1
          }
          dim {
            size: 11
          }
          dim {
            size: 11
          }
          dim {
            size: 64
          }
        }
      }
    }
  }
  attr {
    key: "data_format"
    value {
      s: "NHWC"
    }
  }
}
node {
  name: "global/Conv_2/Relu"
  op: "Relu"
  input: "global/Conv_2/BiasAdd"
  device: "/job:worker/task:0"
  attr {
    key: "T"
    value {
      type: DT_FLOAT
    }
  }
  attr {
    key: "_output_shapes"
    value {
      list {
        shape {
          dim {
            size: -1
          }
          dim {
            size: 11
          }
          dim {
            size: 11
          }
          dim {
            size: 64
          }
        }
      }
    }
  }
}
node {
  name: "global/Flatten/flatten/Shape"
  op: "Shape"
  input: "global/Conv_2/Relu"
  device: "/job:worker/task:0"
  attr {
    key: "T"
    value {
      type: DT_FLOAT
    }
  }
  attr {
    key: "_output_shapes"
    value {
      list {
        shape {
          dim {
            size: 4
          }
        }
      }
    }
  }
  attr {
    key: "out_type"
    value {
      type: DT_INT32
    }
  }
}
node {
  name: "global/Flatten/flatten/strided_slice/stack"
  op: "Const"
  device: "/job:worker/task:0"
  attr {
    key: "_output_shapes"
    value {
      list {
        shape {
          dim {
            size: 1
          }
        }
      }
    }
  }
  attr {
    key: "dtype"
    value {
      type: DT_INT32
    }
  }
  attr {
    key: "value"
    value {
      tensor {
        dtype: DT_INT32
        tensor_shape {
          dim {
            size: 1
          }
        }
        int_val: 0
      }
    }
  }
}
node {
  name: "global/Flatten/flatten/strided_slice/stack_1"
  op: "Const"
  device: "/job:worker/task:0"
  attr {
    key: "_output_shapes"
    value {
      list {
        shape {
          dim {
            size: 1
          }
        }
      }
    }
  }
  attr {
    key: "dtype"
    value {
      type: DT_INT32
    }
  }
  attr {
    key: "value"
    value {
      tensor {
        dtype: DT_INT32
        tensor_shape {
          dim {
            size: 1
          }
        }
        int_val: 1
      }
    }
  }
}
node {
  name: "global/Flatten/flatten/strided_slice/stack_2"
  op: "Const"
  device: "/job:worker/task:0"
  attr {
    key: "_output_shapes"
    value {
      list {
        shape {
          dim {
            size: 1
          }
        }
      }
    }
  }
  attr {
    key: "dtype"
    value {
      type: DT_INT32
    }
  }
  attr {
    key: "value"
    value {
      tensor {
        dtype: DT_INT32
        tensor_shape {
          dim {
            size: 1
          }
        }
        int_val: 1
      }
    }
  }
}
node {
  name: "global/Flatten/flatten/strided_slice"
  op: "StridedSlice"
  input: "global/Flatten/flatten/Shape"
  input: "global/Flatten/flatten/strided_slice/stack"
  input: "global/Flatten/flatten/strided_slice/stack_1"
  input: "global/Flatten/flatten/strided_slice/stack_2"
  device: "/job:worker/task:0"
  attr {
    key: "Index"
    value {
      type: DT_INT32
    }
  }
  attr {
    key: "T"
    value {
      type: DT_INT32
    }
  }
  attr {
    key: "_output_shapes"
    value {
      list {
        shape {
        }
      }
    }
  }
  attr {
    key: "begin_mask"
    value {
      i: 0
    }
  }
  attr {
    key: "ellipsis_mask"
    value {
      i: 0
    }
  }
  attr {
    key: "end_mask"
    value {
      i: 0
    }
  }
  attr {
    key: "new_axis_mask"
    value {
      i: 0
    }
  }
  attr {
    key: "shrink_axis_mask"
    value {
      i: 1
    }
  }
}
node {
  name: "global/Flatten/flatten/Reshape/shape/1"
  op: "Const"
  device: "/job:worker/task:0"
  attr {
    key: "_output_shapes"
    value {
      list {
        shape {
        }
      }
    }
  }
  attr {
    key: "dtype"
    value {
      type: DT_INT32
    }
  }
  attr {
    key: "value"
    value {
      tensor {
        dtype: DT_INT32
        tensor_shape {
        }
        int_val: -1
      }
    }
  }
}
node {
  name: "global/Flatten/flatten/Reshape/shape"
  op: "Pack"
  input: "global/Flatten/flatten/strided_slice"
  input: "global/Flatten/flatten/Reshape/shape/1"
  device: "/job:worker/task:0"
  attr {
    key: "N"
    value {
      i: 2
    }
  }
  attr {
    key: "T"
    value {
      type: DT_INT32
    }
  }
  attr {
    key: "_output_shapes"
    value {
      list {
        shape {
          dim {
            size: 2
          }
        }
      }
    }
  }
  attr {
    key: "axis"
    value {
      i: 0
    }
  }
}
node {
  name: "global/Flatten/flatten/Reshape"
  op: "Reshape"
  input: "global/Conv_2/Relu"
  input: "global/Flatten/flatten/Reshape/shape"
  device: "/job:worker/task:0"
  attr {
    key: "T"
    value {
      type: DT_FLOAT
    }
  }
  attr {
    key: "Tshape"
    value {
      type: DT_INT32
    }
  }
  attr {
    key: "_output_shapes"
    value {
      list {
        shape {
          dim {
            size: -1
          }
          dim {
            size: 7744
          }
        }
      }
    }
  }
}
node {
  name: "global/fully_connected/weights/Initializer/random_uniform/shape"
  op: "Const"
  attr {
    key: "_class"
    value {
      list {
        s: "loc:@global/fully_connected/weights"
      }
    }
  }
  attr {
    key: "_output_shapes"
    value {
      list {
        shape {
          dim {
            size: 2
          }
        }
      }
    }
  }
  attr {
    key: "dtype"
    value {
      type: DT_INT32
    }
  }
  attr {
    key: "value"
    value {
      tensor {
        dtype: DT_INT32
        tensor_shape {
          dim {
            size: 2
          }
        }
        tensor_content: "@\036\000\000\000\002\000\000"
      }
    }
  }
}
node {
  name: "global/fully_connected/weights/Initializer/random_uniform/min"
  op: "Const"
  attr {
    key: "_class"
    value {
      list {
        s: "loc:@global/fully_connected/weights"
      }
    }
  }
  attr {
    key: "_output_shapes"
    value {
      list {
        shape {
        }
      }
    }
  }
  attr {
    key: "dtype"
    value {
      type: DT_FLOAT
    }
  }
  attr {
    key: "value"
    value {
      tensor {
        dtype: DT_FLOAT
        tensor_shape {
        }
        float_val: -0.026958193629980087
      }
    }
  }
}
node {
  name: "global/fully_connected/weights/Initializer/random_uniform/max"
  op: "Const"
  attr {
    key: "_class"
    value {
      list {
        s: "loc:@global/fully_connected/weights"
      }
    }
  }
  attr {
    key: "_output_shapes"
    value {
      list {
        shape {
        }
      }
    }
  }
  attr {
    key: "dtype"
    value {
      type: DT_FLOAT
    }
  }
  attr {
    key: "value"
    value {
      tensor {
        dtype: DT_FLOAT
        tensor_shape {
        }
        float_val: 0.026958193629980087
      }
    }
  }
}
node {
  name: "global/fully_connected/weights/Initializer/random_uniform/RandomUniform"
  op: "RandomUniform"
  input: "global/fully_connected/weights/Initializer/random_uniform/shape"
  attr {
    key: "T"
    value {
      type: DT_INT32
    }
  }
  attr {
    key: "_class"
    value {
      list {
        s: "loc:@global/fully_connected/weights"
      }
    }
  }
  attr {
    key: "_output_shapes"
    value {
      list {
        shape {
          dim {
            size: 7744
          }
          dim {
            size: 512
          }
        }
      }
    }
  }
  attr {
    key: "dtype"
    value {
      type: DT_FLOAT
    }
  }
  attr {
    key: "seed"
    value {
      i: 123
    }
  }
  attr {
    key: "seed2"
    value {
      i: 66
    }
  }
}
node {
  name: "global/fully_connected/weights/Initializer/random_uniform/sub"
  op: "Sub"
  input: "global/fully_connected/weights/Initializer/random_uniform/max"
  input: "global/fully_connected/weights/Initializer/random_uniform/min"
  attr {
    key: "T"
    value {
      type: DT_FLOAT
    }
  }
  attr {
    key: "_class"
    value {
      list {
        s: "loc:@global/fully_connected/weights"
      }
    }
  }
  attr {
    key: "_output_shapes"
    value {
      list {
        shape {
        }
      }
    }
  }
}
node {
  name: "global/fully_connected/weights/Initializer/random_uniform/mul"
  op: "Mul"
  input: "global/fully_connected/weights/Initializer/random_uniform/RandomUniform"
  input: "global/fully_connected/weights/Initializer/random_uniform/sub"
  attr {
    key: "T"
    value {
      type: DT_FLOAT
    }
  }
  attr {
    key: "_class"
    value {
      list {
        s: "loc:@global/fully_connected/weights"
      }
    }
  }
  attr {
    key: "_output_shapes"
    value {
      list {
        shape {
          dim {
            size: 7744
          }
          dim {
            size: 512
          }
        }
      }
    }
  }
}
node {
  name: "global/fully_connected/weights/Initializer/random_uniform"
  op: "Add"
  input: "global/fully_connected/weights/Initializer/random_uniform/mul"
  input: "global/fully_connected/weights/Initializer/random_uniform/min"
  attr {
    key: "T"
    value {
      type: DT_FLOAT
    }
  }
  attr {
    key: "_class"
    value {
      list {
        s: "loc:@global/fully_connected/weights"
      }
    }
  }
  attr {
    key: "_output_shapes"
    value {
      list {
        shape {
          dim {
            size: 7744
          }
          dim {
            size: 512
          }
        }
      }
    }
  }
}
node {
  name: "global/fully_connected/weights"
  op: "VariableV2"
  device: "/job:ps/task:0"
  attr {
    key: "_class"
    value {
      list {
        s: "loc:@global/fully_connected/weights"
      }
    }
  }
  attr {
    key: "_output_shapes"
    value {
      list {
        shape {
          dim {
            size: 7744
          }
          dim {
            size: 512
          }
        }
      }
    }
  }
  attr {
    key: "container"
    value {
      s: ""
    }
  }
  attr {
    key: "dtype"
    value {
      type: DT_FLOAT
    }
  }
  attr {
    key: "shape"
    value {
      shape {
        dim {
          size: 7744
        }
        dim {
          size: 512
        }
      }
    }
  }
  attr {
    key: "shared_name"
    value {
      s: ""
    }
  }
}
node {
  name: "global/fully_connected/weights/Assign"
  op: "Assign"
  input: "global/fully_connected/weights"
  input: "global/fully_connected/weights/Initializer/random_uniform"
  device: "/job:ps/task:0"
  attr {
    key: "T"
    value {
      type: DT_FLOAT
    }
  }
  attr {
    key: "_class"
    value {
      list {
        s: "loc:@global/fully_connected/weights"
      }
    }
  }
  attr {
    key: "_output_shapes"
    value {
      list {
        shape {
          dim {
            size: 7744
          }
          dim {
            size: 512
          }
        }
      }
    }
  }
  attr {
    key: "use_locking"
    value {
      b: true
    }
  }
  attr {
    key: "validate_shape"
    value {
      b: true
    }
  }
}
node {
  name: "global/fully_connected/weights/read"
  op: "Identity"
  input: "global/fully_connected/weights"
  device: "/job:ps/task:0"
  attr {
    key: "T"
    value {
      type: DT_FLOAT
    }
  }
  attr {
    key: "_class"
    value {
      list {
        s: "loc:@global/fully_connected/weights"
      }
    }
  }
  attr {
    key: "_output_shapes"
    value {
      list {
        shape {
          dim {
            size: 7744
          }
          dim {
            size: 512
          }
        }
      }
    }
  }
}
node {
  name: "global/fully_connected/biases/Initializer/zeros"
  op: "Const"
  attr {
    key: "_class"
    value {
      list {
        s: "loc:@global/fully_connected/biases"
      }
    }
  }
  attr {
    key: "_output_shapes"
    value {
      list {
        shape {
          dim {
            size: 512
          }
        }
      }
    }
  }
  attr {
    key: "dtype"
    value {
      type: DT_FLOAT
    }
  }
  attr {
    key: "value"
    value {
      tensor {
        dtype: DT_FLOAT
        tensor_shape {
          dim {
            size: 512
          }
        }
        float_val: 0.0
      }
    }
  }
}
node {
  name: "global/fully_connected/biases"
  op: "VariableV2"
  device: "/job:ps/task:0"
  attr {
    key: "_class"
    value {
      list {
        s: "loc:@global/fully_connected/biases"
      }
    }
  }
  attr {
    key: "_output_shapes"
    value {
      list {
        shape {
          dim {
            size: 512
          }
        }
      }
    }
  }
  attr {
    key: "container"
    value {
      s: ""
    }
  }
  attr {
    key: "dtype"
    value {
      type: DT_FLOAT
    }
  }
  attr {
    key: "shape"
    value {
      shape {
        dim {
          size: 512
        }
      }
    }
  }
  attr {
    key: "shared_name"
    value {
      s: ""
    }
  }
}
node {
  name: "global/fully_connected/biases/Assign"
  op: "Assign"
  input: "global/fully_connected/biases"
  input: "global/fully_connected/biases/Initializer/zeros"
  device: "/job:ps/task:0"
  attr {
    key: "T"
    value {
      type: DT_FLOAT
    }
  }
  attr {
    key: "_class"
    value {
      list {
        s: "loc:@global/fully_connected/biases"
      }
    }
  }
  attr {
    key: "_output_shapes"
    value {
      list {
        shape {
          dim {
            size: 512
          }
        }
      }
    }
  }
  attr {
    key: "use_locking"
    value {
      b: true
    }
  }
  attr {
    key: "validate_shape"
    value {
      b: true
    }
  }
}
node {
  name: "global/fully_connected/biases/read"
  op: "Identity"
  input: "global/fully_connected/biases"
  device: "/job:ps/task:0"
  attr {
    key: "T"
    value {
      type: DT_FLOAT
    }
  }
  attr {
    key: "_class"
    value {
      list {
        s: "loc:@global/fully_connected/biases"
      }
    }
  }
  attr {
    key: "_output_shapes"
    value {
      list {
        shape {
          dim {
            size: 512
          }
        }
      }
    }
  }
}
node {
  name: "global/fully_connected/MatMul"
  op: "MatMul"
  input: "global/Flatten/flatten/Reshape"
  input: "global/fully_connected/weights/read"
  device: "/job:worker/task:0"
  attr {
    key: "T"
    value {
      type: DT_FLOAT
    }
  }
  attr {
    key: "_output_shapes"
    value {
      list {
        shape {
          dim {
            size: -1
          }
          dim {
            size: 512
          }
        }
      }
    }
  }
  attr {
    key: "transpose_a"
    value {
      b: false
    }
  }
  attr {
    key: "transpose_b"
    value {
      b: false
    }
  }
}
node {
  name: "global/fully_connected/BiasAdd"
  op: "BiasAdd"
  input: "global/fully_connected/MatMul"
  input: "global/fully_connected/biases/read"
  device: "/job:worker/task:0"
  attr {
    key: "T"
    value {
      type: DT_FLOAT
    }
  }
  attr {
    key: "_output_shapes"
    value {
      list {
        shape {
          dim {
            size: -1
          }
          dim {
            size: 512
          }
        }
      }
    }
  }
  attr {
    key: "data_format"
    value {
      s: "NHWC"
    }
  }
}
node {
  name: "global/fully_connected/Relu"
  op: "Relu"
  input: "global/fully_connected/BiasAdd"
  device: "/job:worker/task:0"
  attr {
    key: "T"
    value {
      type: DT_FLOAT
    }
  }
  attr {
    key: "_output_shapes"
    value {
      list {
        shape {
          dim {
            size: -1
          }
          dim {
            size: 512
          }
        }
      }
    }
  }
}
node {
  name: "global/Flatten_1/flatten/Shape"
  op: "Shape"
  input: "global/fully_connected/Relu"
  device: "/job:worker/task:0"
  attr {
    key: "T"
    value {
      type: DT_FLOAT
    }
  }
  attr {
    key: "_output_shapes"
    value {
      list {
        shape {
          dim {
            size: 2
          }
        }
      }
    }
  }
  attr {
    key: "out_type"
    value {
      type: DT_INT32
    }
  }
}
node {
  name: "global/Flatten_1/flatten/strided_slice/stack"
  op: "Const"
  device: "/job:worker/task:0"
  attr {
    key: "_output_shapes"
    value {
      list {
        shape {
          dim {
            size: 1
          }
        }
      }
    }
  }
  attr {
    key: "dtype"
    value {
      type: DT_INT32
    }
  }
  attr {
    key: "value"
    value {
      tensor {
        dtype: DT_INT32
        tensor_shape {
          dim {
            size: 1
          }
        }
        int_val: 0
      }
    }
  }
}
node {
  name: "global/Flatten_1/flatten/strided_slice/stack_1"
  op: "Const"
  device: "/job:worker/task:0"
  attr {
    key: "_output_shapes"
    value {
      list {
        shape {
          dim {
            size: 1
          }
        }
      }
    }
  }
  attr {
    key: "dtype"
    value {
      type: DT_INT32
    }
  }
  attr {
    key: "value"
    value {
      tensor {
        dtype: DT_INT32
        tensor_shape {
          dim {
            size: 1
          }
        }
        int_val: 1
      }
    }
  }
}
node {
  name: "global/Flatten_1/flatten/strided_slice/stack_2"
  op: "Const"
  device: "/job:worker/task:0"
  attr {
    key: "_output_shapes"
    value {
      list {
        shape {
          dim {
            size: 1
          }
        }
      }
    }
  }
  attr {
    key: "dtype"
    value {
      type: DT_INT32
    }
  }
  attr {
    key: "value"
    value {
      tensor {
        dtype: DT_INT32
        tensor_shape {
          dim {
            size: 1
          }
        }
        int_val: 1
      }
    }
  }
}
node {
  name: "global/Flatten_1/flatten/strided_slice"
  op: "StridedSlice"
  input: "global/Flatten_1/flatten/Shape"
  input: "global/Flatten_1/flatten/strided_slice/stack"
  input: "global/Flatten_1/flatten/strided_slice/stack_1"
  input: "global/Flatten_1/flatten/strided_slice/stack_2"
  device: "/job:worker/task:0"
  attr {
    key: "Index"
    value {
      type: DT_INT32
    }
  }
  attr {
    key: "T"
    value {
      type: DT_INT32
    }
  }
  attr {
    key: "_output_shapes"
    value {
      list {
        shape {
        }
      }
    }
  }
  attr {
    key: "begin_mask"
    value {
      i: 0
    }
  }
  attr {
    key: "ellipsis_mask"
    value {
      i: 0
    }
  }
  attr {
    key: "end_mask"
    value {
      i: 0
    }
  }
  attr {
    key: "new_axis_mask"
    value {
      i: 0
    }
  }
  attr {
    key: "shrink_axis_mask"
    value {
      i: 1
    }
  }
}
node {
  name: "global/Flatten_1/flatten/Reshape/shape/1"
  op: "Const"
  device: "/job:worker/task:0"
  attr {
    key: "_output_shapes"
    value {
      list {
        shape {
        }
      }
    }
  }
  attr {
    key: "dtype"
    value {
      type: DT_INT32
    }
  }
  attr {
    key: "value"
    value {
      tensor {
        dtype: DT_INT32
        tensor_shape {
        }
        int_val: -1
      }
    }
  }
}
node {
  name: "global/Flatten_1/flatten/Reshape/shape"
  op: "Pack"
  input: "global/Flatten_1/flatten/strided_slice"
  input: "global/Flatten_1/flatten/Reshape/shape/1"
  device: "/job:worker/task:0"
  attr {
    key: "N"
    value {
      i: 2
    }
  }
  attr {
    key: "T"
    value {
      type: DT_INT32
    }
  }
  attr {
    key: "_output_shapes"
    value {
      list {
        shape {
          dim {
            size: 2
          }
        }
      }
    }
  }
  attr {
    key: "axis"
    value {
      i: 0
    }
  }
}
node {
  name: "global/Flatten_1/flatten/Reshape"
  op: "Reshape"
  input: "global/fully_connected/Relu"
  input: "global/Flatten_1/flatten/Reshape/shape"
  device: "/job:worker/task:0"
  attr {
    key: "T"
    value {
      type: DT_FLOAT
    }
  }
  attr {
    key: "Tshape"
    value {
      type: DT_INT32
    }
  }
  attr {
    key: "_output_shapes"
    value {
      list {
        shape {
          dim {
            size: -1
          }
          dim {
            size: 512
          }
        }
      }
    }
  }
}
node {
  name: "global/fully_connected_1/weights/Initializer/Const"
  op: "Const"
  attr {
    key: "_class"
    value {
      list {
        s: "loc:@global/fully_connected_1/weights"
      }
    }
  }
  attr {
    key: "_output_shapes"
    value {
      list {
        shape {
          dim {
            size: 512
          }
          dim {
            size: 256
          }
        }
      }
    }
  }
  attr {
    key: "dtype"
    value {
      type: DT_FLOAT
    }
  }
  attr {
    key: "value"
    value {
      tensor {
        dtype: DT_FLOAT
        tensor_shape {
          dim {
            size: 512
          }
          dim {
            size: 256
          }
        }
        tensor_content: "C2\376\271i\213\3519\033\356\0009o\216.\272\366\026\203\271\347\030>:\313G\210\272\376tI\271\256\343\024:\224\223\311\271\214\321\240\271\346\3328\270\001*,:&\r\225\271\0277B\271\313\350P\271\344^q:\344\003\201:\034z\3439\250\265+92\272\2429M12:\007\376\332\271\365X\010:\343\251\025\272\324\306\223\271.i\3259\211\205\"\272\320\245\201\270\342\370\325\271\263#\366\270\334\232\236\272\r\316E\272D\225\245\271\346b\3349\277\206\243\270\016\322\2465\357\261\2439/\r\326\271\026\315\t9\3372\274\271\347\376J\272n\026.\271\302\303\2049%\324\0279J\233\261\266\224\371\214:xh=9\3763\3469\303\340\202:(a\024\272e1\354\271\006\266J:N*\262\271`\331_7\234\340\3659j\013\3259t:W:\202\363&:\347\323\3579%Y\264\271D;\2629\r\221\r9\220y\027\272\243\356&:\230\014\2729X]\2537\262-\320\270LQ\013\272\002\220\2718E\t_9\273Y\303\271\270u\005:H}\000\272\226\'u\272o\007\3459\257\324<\271\343\214`\270b\376\301\271@\0369\272l\364\020:8F\237\271\000jD:u\222\3039+}\013\271\311\027\360\271\036\322\250\271\222M\014\272m\214s:\326\261\2238\241\365\n:\341\225\024\272J\237\2538\256_\013:O\306\026\271\326\177\35391\322\363\271\320_\032\272\360\303(9\025\2011\271ji\2249w\260`\272I\250\2339=\264\242:O\354-\267\016\335z7Q@\2448\022BU\272\027uO97\244;\272\274\311E\271\001x\017:a\254\247\271t\200m93\323\3639\017\247\0039[X\037\272\320\364\031\271Q d:\355Sk\272J\244\373\270\005p\200\271\037\016Y8s\216\2549\236V9:\211\255\375\270\301S\2739\330\204t9uDX9\266\337\200\271|\026\350\271\240\005\365\271\202I\252\271\017\226\0279p\326\2459?\025\0349\346\027\204\271\n\324O:\212\202.:\217\362)\271\226`\315\271\313\241\2008\013F\024:.\327\0249\000V\20392J\303\270\360\275Q9}n5:\217\322\333\270[\236\2048\372\377\3618\322\253\0069\037\034 \272\n\261a\272v\302\341\271\226\"\2438J\203~9\264Mu\271\306\324\025:\252\320\177\270G\327\0217\231.\277\270\375\335}8w\257\2409ai\2359\231=\327\271\307\2517:\034\220\010\272\200%\0178\346\307\002\271\003\301\367\271\300\342\020\270\302\200\257\271W\320\0068H_89\220\3271:]\233\0209\271!\221\271J-;\271\275\324\2008~\00738\211f/:\370\251\036:$\332 \271\346\324z\271Rl\220\272\272\370}\271\215b\336\271l\211\037\271\306o79\354\352\2508f\013[\267\226\324\2778\372\020}\270\000\304\2658\221\344\266\272qX\004\271\017\336R\270g\337\036\271\0355\310\270*\333\2459\005\257\211\271\270\367\202:\354\202\2279\220\261E\266u_\300\270\010\203+\270\347<\341\271\302\321:\270\257\230\0149\300\036\2079\270\216\2079U8\001\271mP \272\200,\232\271q(;:\315`\3159\351f29\313[\273\271+\265\3275\353\223\020\272\255\034w\271x\n\346\270$7%\271*Y\3309\224\222 \272\211\n\302\271\264\365\035\272\253\032\017\272u\253l8H\006:\272\313\317\2529\312U\330\270\351\034\3707\036 \0359A\323I\271\327g\3509\277\306\262\270\332q\2149p\277\261\270z\010\0069R\376\0009\354\006\3428\0200\354\271\264\326F9\324\303\022\271\211\333\2249 7n\2727z)\272I\263(9\213\345Y:\022-\3149\252\324\225\271\337\022G\2729\013\2519\001 \025\270\251O\2129\025\376W8\367\027X7\372m\253:\010\3051\266c\245\222\270?AZ\270\230\n\211\2714\347\3509Q\213$\271U\245\2269\246\337\n9\330\267\014:\307\014D9\021\262\004\272\360\177\037\2724\032\032:f\246\217\271\316\230\025\272\251\335\224\271\373\212\013:`\303)\272:\304\312\271\346\244\232\271\253W\025\272\2326\t\272X\2242\272\'\332Q\271~@$\271\027y\251\271\314\013G\272\241\017\016:\314f\024\272-\217\0039\241c\377\271\004Z\2359\205\334\3329\365\275\320\271\003\026j\272l\006\2519X+[:\006_C9K\377\21680\254\2759\006\210\2539%u\302\271\004^\233\271C*\2149\207}\207\270\342\372\031:\370\204\241\2719\253\2529\207T\0379\213\320a\270l\217\n:\374_\2349\313_\360\271\033\n\2359\267{\031:\250\010j\270~$\350\270\216\'\226\271\201\030\304\266~\276\2349\362\234\300\271\352&\033\272Q\3570\2711\010\032\272\250Rs9\217jF\271\302\362P\272\263\336#\271\367\362\260\270\354bR9\372G\206\270\330\321M:$\323r\271\272Z\336\267z\262>\270@P\002\271\023\224\2038\016Gz9\314x\036:\352\023>\272,*b\271\"\001F\271\325(\3309\212\024%\271\251&]\272\226\227\0358+>\202\267\005\230\2508\032\205\366\271\325hK:\214\301\021\271\324\005\254\270\224T\312\271\241\321\322\271\213\371\007\272\371\0368\271\246X\335\271\260\235i:\262ZN\272\204O\r\272`01\271{\244\2329n@=\271.\327\2329\3372\360\271}\302\3357\005\244I:\225k\337\271z_?9\277\027\3048\314\204\207\272\277\026\213\271@y\003:^2z8\267#\r\272p\214\2409\254\226Z\271\241\204\'9>c)9\276\377\000\272D\376\2659wr\354\271\341\216\026\272\013\373\327\271\243\312\035\271\007\004H8\362\311\263\271c\346\2459\221o\3428\330\263\243\271*\276\3019\354\017\014:3\370=\270\\\353\305\270\034\314K\272;\243C\271\301i\021\271~e\3628\223\245\235\270\200L\3328n\0025:\003\373s\271\230\261a\271T\310\031\272\250/~\266\010\375\3419\213\261P\272\216\006\236\271\030l\2027\262r\3149z\212)9\342\022\0369\006(\316\270\343\276^9\364\260\3349\310\327>\272\016o\2439\320\257B\270K\370z\271\334O\213\272\3505#\272:hK:\367\376\245\271\237H\007\272\225*N\271\302\222\261\271\233\370j8\320\3346:\376\370\212\271d\246\2168\343/\003\272\217\2537:V\336\2618\211o\000\272\362\033\3309\253\r\n:\242\243\2328\034\002E\272L\375J:!\372\n9f\307\005:\261\352x\271\347n8\271\324\351H8\010N\3729s\367\2058\204\304\025\272y^\3578\314\307C:\313\013\0048\243\274n8\211\356\016\272T`,\272\346\241\227\2716\002\030\271\255.?8\233\213\2348\035a8:\242\206\3377_N\3529w\027\232\267\021\227(:\224\272g\272\331U\223\271U!\3619\037$\255\270\245/\3319k\02749\036T\3369t\317\2129\2558\2339\374A-:\000\032\3429W\326\3579(\316 7\344\177\206\2715\342\227\271\r\033\2509\316\372\216\272\327K\025\272J\332\331\271:5\340\270*\200\223\272p\242\020:\037\323\2129\357\241l:\361\355\3669\247v\3519F\227v:B\266\200\271\352\0247\272\232\006\330\270\206\263\271\271\316E\354\270\206H\370\2719y}9\031al9\357\257F\267^\336\0149\317\275\211\2708\210\2539\224-\0008\214\257\372\270\325\300\3159w\330\021:\2113\033:|\247\347\271\316\254\202\271\256\307:\272\250\212\340\270\325m=9\021\302u\270\375\014b:\321\021>\271\331\370\367\271\004\303\2039\316\340\2078\370\023}9\346{\0109f\375\3448\243\233y\272\010\337\250\271\362\326\213\271\207\312)\271\010\014O\271\216\235@9\303l\2039*\022\010\272\206L\2269Y<\2129b\014S9\364\233\035\272\017vB9\204\367\0358r\332\3409Y\351N:e\215=:\226\317P8l\321a\265\301\306\2179\235\002\001\272\334\0314\272\316\200c\271\327X\n:K\344\023\2711\2771:?\241\245\272\201\331:\272\234\222b\270<B\3239w\215\007\270\200\3449\270\330\226c\270\213\"O\272\321\357\000:\240\371\235\271&H\3649\262W\004\270\"\306\3739\362t\0359\371\270H\270\313\261\3238*\344(\272\366y/6~~G:w\006\022:\230\"\350\271\303\215h9\334@\3558\313r\31090((8\252w\321\270lH\033:\375\026\3028?b\r:\206\222\3369\372\337\030\271l\365\231\270\234.c:!\004\2538rf\260\271G\202\013\272\262\347\3479\323\262\2268\320\352\265\271\n\377\2359\321\221\2238\022\3426\272\375\312\2119\036v\024:\372;\224:\000\276\2007V\356\3268N\2739:\323\235\2378\177g\0059\257\273\213\271\351%\032\272(\\\3229\353]\023\272\337\032\005:\220\371\260\271\261,\0009\363\224.\271\3350\013:\327d\0169[m\\:\"\201\367\271\244\024:9\026\206\2537\262\014\3718h\306::\nL\2079\017\\\002\272z/i9\3324P\271\301\361P\271\206$\3609/\301\211\271\212\367-\271\301l|7\212.\3359\270{\2069\203y\330\2709J\370\270Sl\t\272\264\357\266\2713\211\232\271\010\321\212\270\201\377e:\307H\235\271\366\202\t\271\362\026j\272+\266\2139\34491\272\315\024\321\271\"-\3609\\\377v\272\206\36408\275\361\3039_\337-:\370D\322\271\2617\221\271p\365H:\364\2064\267\352x\255\271\213]\234\271\247\244\352\271\n\230S\271%v\3729\345\377\3139h\357\014\272\313\025\3268\254\242F\2714\027\2679\337\337\213\270\316X/9j\014\222\270\nX{\272\236\255\2607\376\315\021\272\251\331\2549f\013\242\271\354\225\217\271F:\201\266R\365\2129\230T\226\270\251eG:xk=:C>F:k\356\313\270y}%\272\360\331\010:\340/M\271\352\225\2207\263P\2179\277\264=\2723&C:\321\357\3229\337\272/9Z6\3119\255\271\2049\023\276\\8\333f\024\271b\033\257\271\344\305\0049\0047%9\353\337\002:b\314\2748f\226\312\271\245W<\272\300\316j\270[dR\267\276\232<\270g\010.\272\326\300\3609\0372\3659Z\377\271\271*t\2729(\246\3309\014K\2127-)\336\271<A@:-\004.9\211I\361\270\005\331\3019\270\023;:\372!a\271\275\346\2519{\006g:\351\363\001\272VF|\271\313\374\214\271\226\311\221\270:\357\307\270\334l\0049z\343\310\271\r\347\220\271\230O\0259u{\2308\237g\3269=\205N9\276\364\2639\002\243\005\272\203>4\271\"AQ:/\25749?\207\2559\213\013\3728RKM9\220N\343\270of\316:\'t6\271\273A\211\267L.\216\272\002\263\3749|\314y\271\352.\334\267~\311l\271\305\367~\270$\177\003\2714:\244\267\262d\304\267k\302\213\270\'%\223\270\232}\023:\264\252\3269ID\3169\313\336\244\271\342\204\020:?\304\005:$\003w\271\236\213/:[\221\235\271\0243P\272\204\203\005:\332\026Z\270\255\302\3409\374\020\262\271\262\243\013\2721\177\016:\202M#\272\333\2256\272hhk\272Sa\231\272\201\201\364\271\026\344v\272\357\307\203\267\204\351\202\272\365\036\000\272\361\320\204:v\372\0379\343k\2777\257\220:\272e\256\334\270\022\305\2647\343\311<\272\342\303j8\323\027\r::\357)\271R&\266\270\0214n\272\037\005\031\272\357[\3769\276\305\220\2714g\333\271\036\351\234\271\245h\314\267\225\245\377\271\264\367q8H \037\272\000\201\2639RW\374\271\214\366\030:\321\017\227\266\036e\300\271\202\351\3229\177\244*\272\274\261\203\271\tB\014\263\202wX\270\265\232m\272G\304\332\271\203p\2368b\034\027\272}\234\026:\337\005q9X\330y\271\232\351\315\270Y\272Z:\363k\3209e\362/9m\257\036\272p!?:2\017\3709\241&\210\270\234J\201\271l\316\257\270T\320\t\272\236\026V\271Rp\2619\356\305I\272K\010\024\271dAQ8!-F8H\227\020\2720\365\003\272\026C\3649\247\346\016\272I+\3429&IY\271\205\246\3669\270aF\271\026l\006\272R\253\3119\263\204\370\266Lj(:9q\3179\335x\332\270\020`S\271p\305+7\3052\2628\226\241\313\271\366u\2719R\005:\271\026n<\271\227zz\271\226\010\3258 \326\237\271%\247y8\255\224\243:\305\312\317\267\244U@\271\352\\8\272\2434\2717\325Y\000\272AL/\271\002+\2108\' Q\272E\260\2238JW\0209\241{\031\272\364\2170\271C\016Q\272\376\0271:\034\265\0259\375\304\237\270\314\004\231\270p\304\002:\377\'+\270\256\227\0209\3550>:\\\315\030\271-\342\372\271\004\220\274\271&\241#:\200\t28\366\331j\271\273#\3419:e\3469\302\363X\271\362B\346\271\003\017=\272\226\321S\272\013e\366\270S\315\316\271\343_X:\327\256\3317\327\203]\2727\005%:TX\2218\314\225\2429\306\'\2359\3311\0139\003^q9\275\245\3518\0317\374\271z\236\'94F\3569\217&\273\270#7x9Z\270E9\344\330E:&\353\363\2702\207\014\271\035MW\2707:<\270\013a\210\272\005G\240\271\250\036\0249nLw\266\023\304\262\271b\340\234\271\316\272#\271w<\270\271o\020q\271\305\\w\271\203%\3179\245D\3629\214\220\3359\317\215A9\242Y\252\271\224\203\3249\263\240\030\271\215})7\311\245\032:^3\0228\325\351\3348@w\036\272$\003p9\003\t\350\271\351\320\3469\035\235\256\270\341\356\205\272\252\237,\271V\202\343\270\255I[9\216\311\2379\034\323\032\271\3440\3649\304\222\273\272\352\007\245\271\017f\376\271\221\210\027\272i\276\3419\247\341\3049Pd\271\271\306\207\007:\205]B8r\262J\2717\225\235\271\304b\256\271l%X9:\342\2229l\262\3348K\025i\272\322?\0059\344m\2049\027}\237\271\255\020\2367\274\357_\272\245@\032\272\002\221\025\271UD\014\271\232\325,9\213\035\r\272\305\330\036\271I\365`\271|\010y9\324\217#:y\324L:b\240,\272h\036\274\267Zs\001\272\314W\000\270\246$P9\232\351\0378\342\317\305\267\241\342,:\205\231\2509\314,\000\271\341k/7\326\253\3109|\224\2159:\333B\271\0336V\272w\306\021\2720\372\2068k\263M\272\241u\210\270\326\302T\271,A\3449\357\013\025\272\242\243Z\272\205-<\271F\340\2219\306z\3679\027\331\330\271+\244Z9\373\323\373\271p\026\244\271O\350\1779Y\347\2569\320H\350\271J\313U9\315\332V\272\246\244\277\270\324\"\375\271f\027\272\271\206%\023\272\226Lz9\234D\2069\027\250\235\271\016\322,9\245\276\3668vsc\270\177\245y:\264\'\303\271\025+\3266\271\375:\271A?#\271\232\n\2268\001\004\006\271\001\t\307\271\000\263h8Yn\n:K\305\3269\344<\27484\235\246\271\377\255\2538\241\246\3639\206\337\013:\3226)9\332y)\271\367\035\300\270\257\\\2749;v\2369\215\007M\272y\r\2209\277\r\2539\265&\302\271>\207\264\271\300\212\253\271s;\227\271+T\034\2725\263\0259F\335\267\271\366\225\002\270W\217m\271\224\203\3548~\303\355\271B4\3378\013d49\202}\3159Z\331l:\322!m\272\333\017\0179\251\307\247\271\022\270d\272M(\3069 \205\030:{L:\271TR\3158\013\016\371\267f\355J9\234\353\3169A\236\0319e\001 9\2618\r:(\200\232\270\337\222\3319\363\207\274\271.\377<:\251\224\2549\016.9\271jep\272O\364\023\264\366\352\003\272\3759\r9\022\327&:\345\"\2318\273\250\256\270n\313\0309v\037\0009!\337\211\272\264\031\3308i\264\2139a\365\354\270[\203\3469yhk\270}\225\2649\305\304}:\217N3\270t\307a\272\233B \271\200\322J\272\214a\2149OU\031:\344\264\2409\035\035\r9\371\364\226\271\rv/:){\2569\222)\0039\023B\2758\336yN8\307\347U9n\224\224\271\273\373(:\256\272\2068\216M\2129\322\254H\271\324\377.9\027\026\200\272\322\032\007\272\270\264k\267\303\266\034\272?S\220:\014\257;\272\255\000\0369\337\035::\331\367Y9\351\376\t\271\345<\201\271\267\237\2339\217\322\265\271\017\346P\270+!\2559\300\346\007\271f\277 8\253\026\013\271\352%\336\271\335\271\020:\226\322\":\251v\022\271F@\365\270dI\242\270\265K\1779P\365\331\271\004?\'\270r\202\3648\375\246\2249y\341\241\272\t\204;9\322\310\0359\326m\3529\262\200l\271\337\026o\271\360\212\n:\267l7\272\333\325;:\207R\234:\313\256Y9\341\013\27296R-\272\212\264\232\271\252$\3569\353~*9`(\236\270i\273\3408\375\373s9\201\352\006\271\363\330T\267]q\213\267R:\003\272\227\324\0379\342\004S:{\253A:\3233.\272\030]\2039\241B\2339]\342@\271\336\026\335\271{\311\030\272\013\000T\271\014\"&9Qd\217\270\235\355\222\271YI\n\272\263V*9\260\r\3659\361;\326\2710#C9z\341Q\272\236}\223\271\367\310\2639\212S\004\272\033\336\211\271~\250\':f\222\257\271\260\336\315\271a\241\2179\247\274\\:\235u\344\270\364\217\2659\2159\":\022@\0329\365\215\371\270\253j\310\271\2122,\272\212\277\002:a\336\2538EA\037:\r\213\3439\344\272\223\271*\241\016\272Z\262;9}\271\215\271\2247,9\301.\245\271\313;\307\271\n;\200\270\371\376\3219\n\231\0179\026k\014:\312\341\014\272R\001\376\271-\3522\270\003\301y:\307\253\2309B\014\003\272\335\326\020\270[\201\3158\233\231\202\271\263\237\22091\016\220\270s\202\016\271\002\265\n:aSQ\272\\\323\337\271v\204\312\271\270\230\320\271\335\301\262\271\351ov9\027\250\3779)6\3269\367\245\357\271f\222B\270\273kP9\314\344\3368\311\243\025:\315\372\242\271Y\342\2318\023\3145\271:E\3478N\205\361\271\272\337\331\271\231\306\246\271s\366~\271\3711/:+\305\003:Gz\303\270\257\000\2408\000\035>\272\315\267\246\270\177\251\2208\240\014\3739\033X\0239\307\333R9\306j\n9\3573\3628;\234 \272\\\rE\271\227\035 :\274\322\2759\306\366c9\351L\3617\357\333\2379R\205\327\271\"\3035\272\244k4\271l n9W\222G8\007S\3539\333m$9 m\2577+\271\021:\3769\005:\024\2352\270\272(\377\271\216t\324\271\3009\227\270: \'\271\361\033@:\034T>\272\003\262\354\267\214\203\357\271\234q[8\370\32539 U<\271\274S{9\234\327\301\270o\254\245\270$\373B\271\035Y\2169\317:\2058o$,:_\333\025:\272\354z9\232\tp\272\037\311#\272\272\307\3539,\233^\271s\333\3318\355\201\226\271\035\001p9\336a\3419[\232\t\272\264B\274\271\347\214N\272K\300\3408\343\300<\272\304\200#\271F\336u9g\206t:\370{-9\177p\017:\316\220\36680\205\0269v\364\314\2703 3\271Y\374\t:\221\334&9\035\237\0339\223[\210\271\320\337!\271|\251s:,\266\367\267\331\365\033:\343`s\271K\317\2679\241\310\0039\022\273;\2713\312\2209\025\3365\272\273 \2049`7\2749\346\366\0059\361T\022:u\\\364\267\034<\213\270u8\0379\331n\3039-*\2029\001\207\325\270v`\345\271\t6\2349~K\260\271\004E\276\271q5\230\271?\320\3337T(\273\2719j\002\272 O\232\271\322Z\251\270E#H9\336\353\3737\330\242\360\271\025\334\3238\257\320\0249\023(R\271\340\031\270\271\302h\274\271(\325\200\2710Qu:\345\222\304\271\366;\3658\213B\245\271\005-l\271X\216\236\271G\227\3019\250\31119\267<u\270l\013n9?M\2479\"L\302\271\023\016v9\256\200\242\271\230]\2729BA\2559\013\242:98\310\276\270O\363e\271\346\020\004\271\305\301\2519\027\254\234\271\235\301\2657_)H\272\024\203\3758\017\021\362\271!f\030\272 \202o9\310\340\2778\302\024R\271\301v\021\271Y\024\206:\335\205\264\270\275Y\272\270\366\343\2279A(\"8\331>\3419&\026\00199\004\25397|L9\027\261\2249\377(\240\267\321B\3158\223\235\004\271w\272\21195\316\031\272\342\372\2509wL\3369\304\373\2469\2116D\270\3466\\9Z\\\273\271\346m\3119\366\375\374\271\361n\2109\201\267\1779\241\343J9\010\323\\\271\345\340\2619\346qM\2727i\2679(H\2608b\216\3619\345\375\27382\277R:|\344\331\271NB\2219\302E\322\271DQe\270\003\212\2629\245y\2129p\200|:C{!\271\361\234\024:NR\335\270\362\211\234\271K\n6\272lV\2408\250\333v\271\002P\3019\273\350y\271Y]d\271T\000+9\000\250V:\274\336\365\271\350\200\3629\342r\3169\372\021\325\270\212\002\24097j\003\271\253\225\207:\255\262X\2706R\0278\346\266\032\271XYJ\272\2002\362\270[=\3368\034^4:l\302_9\352\274\251\270\334=\3337\373\347\0239\210V/\271~\037\23394\2536:\270\035*\271{\344\017:\203*\31098\030\2019\252\226`8\365\320\03395\343\304\270-\257a:\372\322\252\271\211\027\004:\330\3621:\213g\030\271W0\006:\352\030\2118\231\241\3337\323\021\022\270\332\304;\272\210\304\2079*\2351:\276\334\254\271\371\275\3259\322\354\036\270\022\205\377\271\343\215\3529)\340>:\274\002\267\271\361j\3108\265\376$\272\0134\242\267@?o9\223\231J:\324V3:\017\3307:\320?w\271\361\001\340\270\3243<\272>\342\241\271m\302\"\272h\002(9\3677\241\271\035T\003\272x>%\271\033<\006\272dm\00792?\0009/\310\031\271f\324\251\271\"\300\026\272\335o\1779\323I\3308V?O9\0314\r\271n\010\311\270)\374\":b\227\221\271b\237\016\271\270%\2539\272\010\0179\246\177b\272\023?C\272m^\231\271\034\362\32499:\2449\337\036d9\002\266\2239\371\212\334\271\373\010\2139\022\267\327\271P\323\3359h\237h\271e\213\0029\262XT\272\\E\033\272\246\001\3659\023t\2429z>\017\272y~\025:\0322\001\272\224\327\0337S\260]\271!m\327\271\235s\3779\027\233J:~\r\2348\207\0174:\277\330\376\270\345\240@8\256$h8\375C\n\272\344\300i9\r\227\2449\241\245\245\270\216\000D\272_\004-9\260W,\272\\\272\273\271\326\206\2028\230G\271\271\316\006\3468\202\020\312\270\350\340@\272\323\247\2378g\033\2129c\320\3479\267`.\271?i\357\267\305\2315\272\030\224e:o\3250:D\326b\267-\025g\270\252>\244\272\371\327\3629\300\253\2049pl\2729\343\241>\271c\232[\271\037\247\r\272\031\346\2609\354\220\021:X\347\3729\027\205\2608K8\026\271\341\235\373\271\364!\254\271\336\302P9\nC\377\270\275\214?:,2\001:\216\213\207\271\272\327\n\272\0010\201\271\301\213\3659\373\264v\271\312\320s9\323\224\203\271d\223\0379Zv{9\217\264\3479w\225$:\241o\031:9\340t\271=\212\201\270\302W\t\272\245\366\321\270\006>47\265A:\271\240\235h\271\353\240\3569r\240\3269V`A9@\211\r\272\004\264\2618T\0361\271\265>\030:\351OR\272\360\364z\271\353\277\215\271b\316Z\271\210\362\3429\264,\213\272\204E\273\270wL\3029\362V\3349o\253x\271\2300\227\271\303\022\"9:\246\2138\253K\3747\340\257\317\272`*\r\272\261\204\276\271\300\244\2239\020\300$\272L\277\357\271\237P\226\270\274~\026\272M\246\2249q\2714\271\210\001Q:\307/\225\271\252\276\212\271\013\371\2759\345V\230\271\257\374.:.\345`9\000A\r\271z\270\222\270y\312\245:\331\231[9~\320\2128Yct\270\004h\3639o\020/\272\310N\261\270\014~\241\272\307\314s\271pR\3059#\360\031:\030j\2109\265\310\2269G\372:\272\334\252\243\271\010d1:\333#q\271\236\372y\270\267]\301\271\226\344\350\271\265Fh\271\317\257\232\271C#\3269KK\3138\010\216\3529\203l\037\272\376\362\017:\233o\0357\352\304T:\306F\311\267G61\272\322\241\021:\364L\203\270`?n\272\343\t\2158\017\203\3248<\267\3709\r$\303\272KK\000::\357T\271\343Sm:\370jK\272\222\306x9U\271B9\325AJ\271\306\214\272\271#q:\271\322\234\034\271\340Y\025\272\037\207\3529\226\250\003\272Sf\3629\034\277N\272\004\030\242\270\323\341\234\270\200\305\355\266\016\021\3439\017m\301\270/\273R\271P\351\276\270\010\307\3539\221\026\t\272\374\262\344\271\327\244_\272\305\377d:j%\006\272bYV\272n\331\265\271\230s\217\271\254\240.:@aT\271\3617\0149\263\225`\272\235\341\2778\277\250:\272 \036\032\271:\257\264\271%\006\3317\206\261\2219U\204\035\2726\315\002\272HU\2708\360I\2279\004\212-:\265\241[\271\224\3108\272\340\262\2678s\353\302\271\233/\351\271\201($:\014\257\2209\207\"\253\271\250\222\007\267\307\356\035\270\215S\2318\211\025:\271\331Ee\272\365H\360\271s\363u\271\227\'O7\002H\362\271\n\304\2568\037/.\271\364\303\253\271Y\305\017\272\3467H9\007\376B9\275\030\2719?\375\2029(\027\2219\222$-9\037\250@\272Q\260\373\2700m.\2721\037\037:\352\341\311\266\246\001\022:[\224\363\271\001\006$\270\360\270\3628\243\240\030\271f\315\2518h\2463:\303^\353\271\017\272\227\272\355\363<:\3079\257\271`\330\001:\223L\2279\356\301\312\270\017\37699\350f\372\271$\262!8\3275\2079\250\036\263\271d\0262\271\315e\0229\021\272\026:\225/\273\265\303$C\271\347\324\206\270\'O\002:\037\250\226\271j>\r\271>\013\223\271K\231\301\270C\214\3208\371\262\3569\003\323w\272%\376r9\324i\326\271I\311\2019dE\022:\200\217\3419Ow\2148\246)\2709<\210\341\271\323\366\375\267\03320:ai\274\271L\327\2668m\265-\271\013\217\261\270\014\356;9\226\327\005\271\377\027\322\265M\305d\271,\307K\272N\274\26686\333P9q\266\":\001\215q\270\364\335%\272|\200\267\271\212F\2039\376\005\036\270aC\0039\235>\035\271gPX:\334\266A:\272\206\332\271\021D\32691z\0139\332\034\3146\276\025\311\271\241\3549:uy\004:Bd)\272&n\032:\333\265\220\267\221t\211\271u\225\351\271\\\301\3479\243\21529o\n\304\271\342N\275\271\277\311-\271\350\334f\271N\035q9\370n29\242\200\222\271\270\037C\272\\\355\024\272MO\3129\302L\347\271W\250S8\2543O\272\010b69\343\311`:!Z\031\272\',r9m\031\3778gm\3149t1s\270/\226\3738m\035\2508\236r\2049\350t\306\271\006|\2728\212\215\2639\r\037\001:\342\203d9\004\373\002\272\033J5\272x\20179^p\364\271&\373\3059\030i\010\271\214g\3579\216/o:\273\276\343\267\262\237P\270\225\177\3459\251\237\3549\324$G:\322\277\2658\305\311\217\271\023\306W6y4\234\271\245\265\3238\374[\307\271\300I\3169\207\305\2379l^\2078kR?7q\262\265\270kz\027:\252f\007:L\026\2128\313>\316\271\266\365\n\272p\270\0059\023\273\223\271\346\244]9\334\2773\271\355\200\2609K\001\3018!C\3409K\314\200\272\325D\321\270\313\017\202:\346N\220\272\313&\31693\224>97\351\022:E\226\241\270\243\221\004:+\371\010:et\2718\333\255\375\271\203F\33490<\352\271\005\362|\270\001\227\3319\274\021\003:\306\222-\271\033\327\2329\364y4\272\336IS\271\340Q-:\013\241\032:\207\320\23193I\205\270xF\3029\014\367+\267\211e\2408\022\316\'8\313\343\257\271]\225\2569\n\345\354\271\305h\2749T\266\334\271\243\343\246\271\365\206\232\272Ep\213\270\272\303\2518z\315\3139\372/\033:\023\364)\272\217\343\3509\316W^\271\203\372\n\2707\rR\270e\013K\271G\022\324\271x\344\0039\316\216\303979\025\272\005\355\017\267\013\333\217\271ri\004:\2063h9\315\0353:m\0179\272\257\365\3559\024\314\23385J\256\271\313\201^9\360r/:\342f7:\245\301\2719,e\345\271\353\350\0149\355\365\0319rt\021:\373,\235\270\024\243\3436\032\010\235\271k\222\2479\271\273\306\270\247o\2508.\303f\271y\271\2637\212}\373\271W\313\2238\301\031\216\2718\374\2409\361\343[:\371(\2729\263\036\t\272\017:\'\271\377mG\2729\267\3256\366\231Y\272;\206\027\272\235\227\3779]Y\3119k\2562\272@\236J\271\245\227U9\267A69\213y:\272\230\376\3728\205\230\225\271\204\212\n:\306c\270\270\004\334 9\372\276L\270\226;\2309\214\265\255\271TD\2279W\210\007:\262\352R:\266+7:\352\262\177\271\007+\2069}\366\2669RK\2019\230\333\25190\200N94w}\271Vz\2728\204\275\3029\326AZ9\317\255\364\271U3\312\271\344\302<\271!2\271\270\215\200\2308\321\335\336\271E\345\2669\325H[\272h\013j9\206_j9G|\2259S]\263\272\313\363$\272\r\336\032\271\332c\2368s4\024\270\256<\274\271\3005\026:\346\300\0279\202\3333\271\201\343\344\2717F\3677\253\343\020:\324\342|7\306\326p\267\240u\3717]i`8T\364\334\270\341Z\355\271\347\2010:\371\270\2249\206\207g:\016Oo9>v\312\270`5\337\271\327\206\025\271m(\000\272\214{g:\216K\002\267z\361\2679\332\030\3379\266\004\001:Q\230\223:\310\2233\270\375\200\245\270:>\2308\215\334\2719F>\2548X\311\363\270&\341\237\271\3163\267\271\326\020\00097.\353\271\n\257O\272\214G[8Ky\r:u\305\2409\356\302\005\267\342g=9\333b7\272\337\220\237\271?\036<:m\341\n:/\271\247\271n.I:\346\331\250\271a\214\300\271\242\0330:9\254\024:\326\327\210\271\323W\257\267\233\r!\271\230\327g9\375r;:J\210\2029\346nK\270\330\366\026\272\031\223\2659<\034\t\272m\227\250\270\031\342\3329j\030\2779\311M\3019=\216\2449\003E\2028`\204\0149dA+8\221\304e9<\231{9\023\370t8\371\256p9\031\'\236\271L;\007\271a\317\3278\3172V:V\017u9\240~x\270\232s\313\2709\017\2549B\0068\270)h\2329@\271b9\374\300\t\272T\360Y9)\203W9\312\355\2719y\365\273\271\265.\004:\241q\234\270\235\234k:\207\\O:\335\324\210\271)\\\034\272%\277\2349\036\255\271\271\2777\3779t\013x9w\000(\272\234\257\2619\000\365o8\000sN9\325.(:\237\247n\270\341[\2559\036\022\211\271\232\253\213\271Y\372\313\270\005t\217\271\271\031\2039G\351\026\272*\207\3049\026X\267\271\361d29\344\003\n\272\0338]9\301i\3749\344W\22160\2430:\361/\202\270P\33689Ro\325\2714\014J9pU\205\271\224\037\246\271wHA:\"\310\020\272\'\323Q\270\316\337\2459\343\213\3208\304\356O\272\274I\2169&D\026\272\274\341U\271\334\025\353\270*\004\250\272\321\255B\270\035\326\2379\370\257\251\270\205\256\2668rP\204:$\262\3739{9\3407$\343\224:\016D\222\271\201-t9.\3024\272\377N89trT\270\207\330\3467V\r(9F\256\0069\361|\355\271\245/:\271\240>26\230(%\272L\237\2569\341BR:f0\0109B\t\202\271\217A\210\272<t-\272\206p 9\2139\027:\216;\324\270\021z9\272G\270\304\271\237]\210\271\2457d\272{\277\025\271Ti\3239\351\\B\272\366\372\177\271\321\224t\272\205\256\300\271\316\233\214\270\261\013\3649\220\265Q9T\257\r\272\225\26348|\342\027\271\353\217\270\266\240i\266\270?\230\r9\254\227\2478(\001\3059b\260Q81\351E:N}w9\210\325(:\246\021\2559\034\300\250\271\031V\017:X\017\006:\214o\260\2729i\202\271\324\352\':\207$\3629\0143,\272\315\257\3059\341\224M:\256\214\2059\t\2634\272\244g\266\271}zF9\222\'\324\270@\263\034:Qu\2709\200\333d:\202\252\3569\300\337\2019\274W\016\271\245\316!:xg#6Z#\353\271\244\000\2727d\3314\270H\252\345\271\202\242\2769*}{\270?\22099\026a\262\271j\370\224\270\031G\2579R^\335\270m\353\'\271\232\237|:{\316\0269%x\2529+\025\2519e\372)8\354\342m9y\371\354\271gM(:AW\014:\226\372\2568(U@6\232S\n\272h&\3559\nE\353\270#\327\2119\005\237.\272t\007\2209\266G\241\270\222\356\2636\223\350\034\272\002\032\2359d(\216\271\372\364\257\267T\240\3049\246w\026\270\227\257i:\353\223\314\271\236\204\3368_\216A9\345\233\356\271\353L\0378\235\253\264\270.\245\3148\315\340P9\245\014\035:bZ\0079\021\257\2009\310X.:\024\245;\272\246\347\376\270\"\002\2157^s5\272\030,\00684\242\215\272\003f\2329An.\272\272\273\r\272{#i9h\0018\272\353~u:\233IZ8\364#4\270\017\235\017:\t\302\023\270\376r\3428\220\340\215\270\272=h\271\225T89E\307|9:N\020\272p\307\304\271\232\002\234\271\237\374`\267\224\304\"92\330v:n\326\0029\026\270\251\270\323\251\255\271\334=\3469$\002\263\266c3\0309\335\351\240\264:\343v9J\224`9F<09\201\017\3415\211\314/8B\33229\276\240\\\272.\351w\267\342\t\3449-uV\271\221Hv\272\234<\037\272\300\343\0178\236\313\260\271\2320o8\\~\004\267\254\377Z\271X+\315\271 \036\2608\365\355\3737\227xi\2708\022\3119M\234\2758\334\024\205\271\243\303&\271\266c\346\267\024\236j8[\r\035:\000\331A:q\252[\271\020l\353\271s+o\271H\255D9\212y\2719\037\020=\271\301\300\322\271\310\23609\205.\2209\205\263\3649\003}\232\271M\275\0219ab4\272Q\344B\270\354G\2469@#-:\n\262\0079\351\246\351\270\t\326$\2729\177\3308\\\202\2259\321\032\3449\0031\3368\210\314\326\271\224\254z9j\354;:}\254\365\270\210|\271\271T\316\025\271\240R\270\266\311\036\203\271I\344\2339}\315E9y\353\030\271PR\021\267\010P;\272\2311\0269\316%!\272\254\r\000\271\233mR\271\r\023]9\212\334U\271)n\261\2675\311-:\206\2575\272\365\257R8p\333\3109\2712\217\271A\300\0337\361\361\030\272\362\2029\272\252c\2469&\215\031\271\204Z\027\272\337\236g\271\354\311\2119V\362{9\305\321\3639\337\204`\2712?\215\271B\353\0339\276\364\3319:\2744\271\t\221\34694\200\031\271\305\027j:\351dN\272\017h?:\325\3508\272h\034\017:U\202\0318Y\366U\271\2614\321\271\260R\325\271\232*\2409\235\030S9\177c\256\270\324\305J\267<\307\316\271j\210p\270\003\013\3259\256\362\310\2718\034}9P\014T\271w\2070\272\300\377\3469\263m\031\272.\215P\271a\275\003:\033c\272\271T\375\3269\327\036T\271\262_3\270\017*c:\217\245\r:\010\270\0338\236\331\233\271\3303K7\336\331F:\215\244\200:}D\217\271i&%:\017\243>\272\343[\21294\31019\222\314\3709\263\207\277\271\024\332\2138\326\272_\272\267I\217\271^\326\363\266\200\333\2618\370\260\235:\'\257k\271\035\266\0277\311}\001\272]\353\\\272\307\031\3269\251\321\3169\233@%\272i\353S\272\257\251\222\271\021\271<:\241\3266\272\251\036\2429q\275t8M\240\n\271\026\224\216\271F\224\3418\272\367\023\271\005\315/\271\310H\313\270WX\001:\312\364\3228\262\275\0078X\221):\016H\007\271u\010\':\007\t\236\271~\261y9JP\022\271z\206\374\267\231X\225\271\003h\007\271.\023\251\271\267IF9\357\246\276\271\002\036w9YZ\203:E\\6\272\216v\207\272^~\337\271\376@\2509\211s\237\271E\266\2049\273\217\3339\321\177\357\270\333\255\3159V\216\200\272/\336\2669+0\2649\241\273A\270\027@\3519.-\":4@^:awe:PE\3067\336$\202\270\206\030\020\270\033%\227\272\214>\2519{\367\205:p.\2029\n\316\'\272\375)\334\271\332\032\331\271\312I@:\234\014k9\221\006\2349\304;\0339\230\304\002\272G\330\326\271+x\2359\'}!8J\215Y\272d\020\2639[-$:\211]96\247{\021\271Zg\031:\020\336\267\270\277b\220\271X\3472\272S\267h\271\331\300c:\036Y\006:\233\306^8\262r$\266%\376\3559x\03138\200\"\025\272*\303\2028\347\022\2348\001C\2666\3740\3668\343$\242\271\004\333\2178.^?\272\001S\325\271\254{\345\270\306\025\2119\346\232\t\271\330\231Z9\0050\3669\215)\211:@\355\002\271\261L\230\271\360\266\2227\225\337\2728\313\030z9rD\3019xs\t\271q\227\2609=;\0318Z6\020:\307V\370\270\220\316\2018\321_\3628Q\324\004:Y\234\367\265q\300\355\271\260hG\272\016\334\3619\324\323\2229\002\361<:\316\375+8a\251\0328\317\024\2518\031\203v\271\255V\250\271\236\021W9\312\317\003:\316i\2079\023\207`\271\363o>9\272\372\2368\305\256\200\271K\375\017\272\232o\277\271\305\273\014:\317\202\3428\360\242\215\271sj\0168\247k\2219#\350}\271\325\262\257\271\036\007P\272\307c\3739\243\201\2019\337\256\2349\036Lz9;\323j\272\264&J8e\331O9c\325\0028\340\006\213\272~\340q\270\020\n\344\270\236d\3459\221\242?\270\262\303p\271\264\023s\271\344N\2429\232~\2429\333\260\310\270[\022=\271t1\210\2725\267e\272\234\317\276\271\211a\201\270\233\033\263\271?a(\272\277\356\211\267:H!\267\321\272\024:\206\311\034\271\214\034\353\270\300C\236\271Mx\225:\364r\2239u\277\275\271\'\302o\272\217\243\026\272\263\216\324\271\3312\035\272\353\217X\270-\351\360\271\2105A\272\263\221\2269\334\0353\272\267\312\223\272a0\3329\227\017P:\031<\2237\034\262\2379\035\334\2269\036\313\207:\370/\344\271\301$U\271s\177J\271c\r\3247\035\006\275\270\361a\026\270\336\322\2048\364I\\:\344\301\3668\201k\3039p\217\2219\254\376+9\2751\000\27148\2719\275#I\272\023\3218:N~\2469JyF8\010\327\274\266\274\270\3048F\000\3009(&U9\037\351\034:\276sI:f\330\3729=\211,\272twx\271\246\354\3479\322\224q:\312&\215\2718\333\2049\373\030\025:b\312B8&\303\014\272Y\266T:\\\347\301\271\350\005\246\271\024C\0049\307\007\3217F=\321\271\2373F:\252zy9\254H\3329\327j\254\267>{D\266\005\237\035:h\265u\271\001\305+\271\206\350\\9\312\007\3219\023~\3179\372\262\343\271\234\324\376\271\014n\311\271\177;\3239\302\023\3139\356\213\0319\363\264\0169&\307;\272\337\367\0169\302\3233\272\272\211\2729\300\333\021\271:^\3348m\350\277\270(G\026\270}\272\004\272=9\232\270\210|\362\267\323U\3178\212={9\316\203Y9T\203\0049\311\033\233\271\206>\027\272\n5\346\271\206\311\300\271,\324\3029\211\003\000:\003U\257\2710\007\016\272\202\313<\272H\213\232\271m\230L9\030e\005\272#\232\025:r\373*9\224M\3719c9\273\271\234<\2419:\234\377\271\205\237\2409D\034%:\026\027,:\316\301\202\271\271\362\313\271;\257\230\270]\331/:\224\301\037\272\273\325,\272\225Og\272\211\261*8\370~>\272j\327\010:\214\303=:=\210\202\270\352\023\213:h\240\3238VF]\271\353\013k\271\367~.:tE\2709d\200d\272\2753X\272\017\263-\272\\A\204\271\007\241\025\272YT\260\271\205\376\271\271\201\320\007\272\271\270q:\260B#:\326\037R:q\2779:O \003\270\260pM8\200\000\331\271\212\035\2218\332\232\333\271r\206<\272\220\225\256\271\373\276\3119l\25658\356*\21595@\3716\001\356\324\271\246ck9\252\250.8\031\315\023:\016\033\037:\376f\013\271\360\255a8[\027\324\271\031\304\321\271d\035\205\271\253\231e9\257\216c\2712\3229:j:O9n\177\375\270\250\"\3469Bb\243\27153\216\271\364\n!:\356\340\030\272\214\321\212\2708=5\2712\374\251\271\266\355\3479\366=\3049\034\265\2349)\34367Hw\2329%\361b\272\364\3024\271\350\321\2157\221\026\214\271\200\365\25683a\210:ifV8\0327H9v\000\3058\335\372\013\272`\327.\272(c4\2729\021\0029\343\236d\272O\314\2269r\224\276\270\310MO9\314\006\034\272Q\2265:\r\274\330\267&@W\272`f\017:\370 \016\272\343\373\017\272)\262\t\272Vt\024\271\377\n\2209\3075y93]\215:\260\325\232\271\274\314L\271\327\220\031\2725\213\372\271\202\376\003:S\350g\271=\267T9K\317d7\2734\364\271\262\241\277\271f4_\272\020\322\276\270\233j\0218\325f\016\271\033i\3459\236\342\021\272H$\2567\341\220\337\271P_09g\272\316\271\327\253\2739w]\2239\276`\0359\316;\3728\010C\3758F`\0239Y%u9\2713$\271$\312\002\2728U\235\267j\351w9\277\353o9=\003M:|Sl\271\347\273\036\272\302\336x\271\232\001>\271\342F\266\271_!\347\271\346[\177\270q\232\377\267\207\345\353\271\177\032\372\271\262U99\367)P9\275\371\273\271\207Y\235\270\357\204c9g\241~8\271\2426:F.\033\272\014\2643\272#\331\2449\235\344%9*\362\203\271\233a\000:x\356\225\271\350\007m9>\"\247\270u!\264\271\313cA\271DD\010:9\224-\271\216\353-:\237A\21788\017\356\270x\225\347\271\335\200\2459\373\370\2738\037\033\017\270N\37798WbX\270u\260\006\272\2624\2329{^J:-\326L:\252)K8\256e\351\270U\233\0338\231(\225\271\364/\0149\310\36789t\275\014\272\031\027\023\271\356K\3169vK\3179V\233\020\272\315\271\000:\022\005\003\271\023\265E\267le\233\270\277\321z\272;\000?9+pA\272\017\311\2679s\032\036\272\023\227\3639\212\241\3258l_\2049\317\"\240\271\357\347J\272\006\273\361\271J\355\0279\321_P9\236\202\313\271\377\303\036:\321\336\022\267\376\222L\272MA\3638\366&\270\271\322-\3029V\357\3308\214\233\2168\356\207\005\2711q\000:\037\242\333\271\0254\0369\204]\2377\376\367\366\271\324\253\n\270\332\217\342\271z3u:\226\t\34793\n7\272\356\001N\271%\270\2119\366\303\007:a:\3069\355\031V:o\"z8w\277\030:Gc\004\272H,\3219iS\322\270\341P\207\270\275K\034:[\005\3569\303\351\237\270\260\205\224:\356\213\020:\245[P\271<o\213\272\275C\0049\177),\271Hl\231\271\374\253f\271i\306\2278F\311!:\326v\360\2713\007\016\2700\'\274\270\237\242\300\271\275<\0049\276\236H:\251\372\2159\301\026\0048\250#I\271\025\251\2647\'YS\272\004\222\336\267k\r\262\270*\270U9\223v\3369\210@\2529\007\267n\270C>j\271p\253\214\2710\245\263\271\315D\216\271\000\346j\270~\325\r\272\205\332H9\3176>\270\2455\274\271\345\346\233\271\212\374\3029 \205\3139@V\211:\366\022\2069@\307\226\271V&\246\271\300~39\030\036\2669N\241*:/g\307\271\357\33398\031 \t\272\202)(9!s\352\271\234\337(:*\000\266\271\255\357\2249i\270\2048\027\314\2707)VM\272\253\227(\270\260[\345\271\274\374\210\271\213\253^9?t\235:8\010W:h\341m9\234%-9\266\310$\271\265w\353\271=\013N9&\221R\271\322<V:\235\306w:-\254y:\341\376\212\271\316\372s\271_\177\004\272\014\004\2319\232\253\301\271>:\206\271\352\337\303\271\341\036\205\271\005~A:\000\004\217\272>\025{9\322\332\272\271\327\340\211:\233`\27499\275\353\271\341\245\227\271\3262\211\271Bl\002:.3=:n`\2218d!\210\270\202\276\3659+{H7\276\233^9\016o\3278%}\277\271\302H\037:O\025\213\271\r\300W:j\210\010:\221\267\2558\360\340\021\272\301\200E:\000\253\0209\342+\3229\037\273,:Tk\000\272!\\%9HF/\271b\246\0169\010uW9\235B?\272\2716\332\270\245\353/8m\312\013\272\272\351\244\2715\267h8.\340\2319\017+\204\270i\236\237\271\341\213\354\271u\257$\271\257\037\274\271\362\353\2049\215P\3538M0\227\2713#\3318c\357\210:.\313\2549\255\222\3568\375\234\24595>\013:\344\0142\272\243\316=\271\003\360\216\271\335\332\224\271$(t:d\367k9\231\362\003:|\325\0209\347~\230:\2555^\2721I_\271\244\360K\271\031\316\"\271\252W\3159\223].8\315\211\2309A\007\3679M`\3258\267\360\2439\363\030I\271\201\371\220\271\203\254\310\271\225/\0268\334T\337\271\013R\367\2719\000\2249\277T\313\271\307 \2169\0204\016\271\253\337\204\271G\315\3179!N\3439_\215\3208(\316$:\206jB\272\236\207\3719\217S\267\271\277\305\332\270\353\245,9m\316\243\271\325\231\236\267\260\233E\271B\022\324\270\236\217t:\272\303S\272\275\313\307\270W\21109G~\002\272\303\022\233\270K)\0169G\250%9\220X\3119\214\r\37291\027\027\2715\006#8\234\021\036\272!\035\275\267\335\361*\272j\252\2276\231\251\3069m\335F9\232\363\'8zq\2719\223\220\000:}\253\316\271Av\022:\234\000\261\271\323FG\271\302C\2539\315\210\2438\013O*\267\366Q\2428\332\222\026:I\306\3737\t\261\2619Y\344\2529Z\277l:\243W&:~\372\2339w\274\2569\234B\2338o\376\225\270.\242\255\266jb.7\361\214I\271\267\331K\271\220\212\360\2676\354\023\271\201$\267\270y\306\237\270Jb\3329\037\241\3059\303i\3479xZ\024:\235)\252\271\253\274^7\010\307\0169\243oL9/\205j9S\230+:\334\036\201\271\r1\3338kh\021\272\220\347?9\205\244>\272)I-9&\030\r:\036W\2139U-\363\271E\016\257\271\303\275\2169\336gL\270\232\332t\272\374\360%:.\363\2608\312C#\272\356L\3418\250\334\212:\3173\207\270\326Q\222\270\253\256\235\271\234\331\2319F\t\3528\017q\2729\375%\253\271Y\313\2479\3325\014\272\034\222Z9*\351\301\271\277\365\2167 \033A\272o\314@8\367<\033\2679\307@\272\267\320I:q\210\22191\020\000\272\314\036\344\271\240\177\345\270\322\310\203\271sY*\270Q\312\202\272\213?P:a\326\245\271P\217\013:)t\226\2700\207\217:t4\3049\031G\3609\350U\007:\177\304\0258&\213\2128\241#h\270\254o,9m\352\0148(\027$9\254\351\255\271\247\323;\271\262\003\2079\260#\0347\247.Z9\224N\2329Q\356\3219oy\\9\351\016\326\270\242\212\307\271\207\336\002:_\352\247\271\351\356Y3(\030::\3538\273\271\004:\361\270\242N[8\213OO\272\217\020\372\271\205\373\030:~\203F9\302?\3029K\346\3508\343\335a\272=}\356\2717S\202\272\2410\2229\350\t\235:\022\2161\272\035\231\3669\214\274\36497i\2578O0!\272\\\220\311\271\263Ao\272\211\023u\270+\341\31085\307\2779\241\242\262\270\007\341\313\271\017\006\227\271\014\201x\270\240\220\0109\311\235\032:\354\320a:\007#s\266Y9\374\271?r\016:\263\231\230:\275\247\256\271z\021j\271]\010[\270\006H$7\343\363\247\271\317\350&\272\366\317\2129\316~q\270r\220\005:aX\2019V.\36098\316\3467\r\326\2469\340\003\261\271\\*t9\334X\3549\273\t\034:\200\302\002\271N\350\2129i}\022:\353s6\272\025\006(\271\3261\2069\231\341\004\271.\345\230\271\307\016K9a2S\271\251\231\0268%\006,\272i\\X\271\222\014\0069g$*\270I\023\203\267\353\335\0229i\377\3679\300\371\330\270\312P\242\2661;\0338\035%U\271\237y\266\271\2571\3059\324\200\007\27267\2079@\031\271\270\356\010\031\271!\254\0379\227\252d9\336\350\353\271b,;\267\224\224G\271s\006\241\271\204\221s\272\244i\2779\2624\3209\310W\005\272/\3675\270\236\234\014\272\273\346$\271\367\352\230\271_R\026:\326\327\026\272\'\\M\272\273\321 \271\026\360\005\271#\362\\:\250\352\266\271+C-:\231op9\346\335C:\3764\3748o\3367\272\035\312\317\271K\\x9w`\304\271#\020\214:\316\031S\2727k\216\271\206\234N9qc17YgO\271gx&:e\275\r8\213\r\3679\255\204K\271\351\330\3639\220\277\3308f\353:\272\365\027\n\272\336\325\005:\003\002\2615\037I\007:\236X\2519ko\001\272\341\202\n\272\373X=\270\340\325\2328\230\323\241\271\220\251e9\215\246\305\2703`\256\271\230i\3578uI\224\271wu1\272\26633:;\327`\272\367\335@\272\236\272\2709\3419\3558\250\261\205\271\202{S:,K>\271\005tX\270q(\34569\272\2149v\300\2459\257\345):Y\357f\271\243\272\253\267}\001\006\271#\314\034\272\265\225\027\271\267\364\0309\333_W8V\272#:\024\336\2678\007\037\354\271\240\265t\271\336)\271\271o}\220\271\207\213\034\2709\"\2719\310\200\3069\264\004\323\271\313\36469t\001\364\267\343\224\035\271\372\225\244\271\241/\256\271\346\234r\271\037\304\3669\255O\3419\234\014\3109\211\327\215\272\356n\014:\273\301\0209\202\203\3149\254(\245\270I\023\25787;\032:\034\310\3479V\010\340\271\245\366\272\271\324*U9\223,\2758\263\226\314\271\016\211\336\267\\\311\243\271\216\310\2049\030\330~:\206|\317\271\2340H91\273B9J\177\266\270\370c)\2712\254!\271wo.\272\013\230a\272\025)\317\271\354g\227\271s,\2549\323T\371\271\346\251\200\271c\006\3779\231;\2719\013\244[9\3537\002:\303\312\230:~\336>\270\233V\2069F\276|\270bm\252\270$\227\336\271\242%P:\250j\2758\001yA:\216\34429\344k\312\271\235d\00677\270\2229H\016\3118\337\331R\272\271\234\3716\021\017;\271\276\232K\271\235=\036\272\375{Y:\275(\3349;\374\301\271\251\010\314\270D\025\022:\215\3647\272\234\2720:\347\337&9!\315[9p\025\231\270\323\367L9x\321]:\262$A8\027\317\232\271\363\262~\271y\272\3629Sv\3728\275[\3318]\307\201\271\360\255\035:\220\246p8\343\024\272\271\021\307E\272\376k\024\272\322\35799\021\241\312\271\356\300o\272@\035\272\271\r\267\210\270\312o\2119\023\034\224\272T\377\306\267\336\231\3059(.\314\271\225R\203\271=\335\2718\276X\350\271x,\326\271\223\305S\270#\021\2448\022>\2029I\322\3566\223~\2325;E\3528S\225\315\271\276\351s\272\231\233\325\271\355sm\271\001\365\274\271B\277\004\272\356h\3509%\332\307\271{\317 \271F\302\2079\316\023G9\363\340\241\271&\026\304\271\232W\000\270H!\242\271\374\335r\270\217\261\315\2717\262@9\367:&\272*P\302\270\313\337\0069\327i\0219\241\202\221:D\372\317\270\231\302\2008\024&0\270\032\\b:\023-\3559\341 ]:\341\334\210\271\246\000\2418-)\3077\231\214\006\272~\242!9\322\027\334\271\353\332\3639\263\205\273\270f]2\272?\357\203\2712\204\2547\001YM:\277\354\3129\321\372)8~5\3079\031\311\2378/\250\306\271\265\254B9\275\321\3059\257l\266:\205{\0219\212$W\271A\276\3209)\002\2419zH1:8\001\2519\262=C\272-@\345\267A~\024:UGI:\240\236\271\271\230\354\310\270\270T\2309i\261B\271\221\336\361\270\030\t\3219\261\205\3559p\341\003:&b^9\032A\354\271\214ft\270\2338\344\271\034>j\271\240\332\2049\004k\2318<\254\202:\266g\3778\017I59\234*C\267\252\304\2619\374\317@:\347l\2368X\035+:H\341=\270\372|\3749\245+\025\270O4C\270\226\211c\272\274\247M\2723\344Y\270V\237\2529\353S\230\267\024\201\305\271\242\327\335\271L\n\2539qZ\337\271l@\3219\376\265\2319\222\363+:X\271\214:\244\032\346\270\261\220^\270c\363(:<L\251\267\254J4\272\320\033\257\271^y79\201\002\022\272\226]n:\2634\027:jy\327\271\327:\306\271\316\364}8\\\216A\271B+?\270\240\360\2309kE\264\270%p$:fo\3139\370\263\3539\307\031\r\272GJ#\272\332\236\007\267C`P:\376e\007:\016\255\24793\331\022:\264\234\361\271\207\307-\272\252r\034:t\315\213\27110\270\271g\"\2229]\t\367\270\371\324p\2705\354\0379@O\2348:\357?\272\220\350W\271\016\203\2469WN\241\271+\243\023\271\001X\006\271\227\017\230\272\326\345@8\374\224\212\271^\337\2149\244\345\3458O\001\301\2711\256V9\233i`\271\207\222\225\271\2121#\272\027\334D9\262G\225\270L\026t\271\210\2212\272\277\375\001:\247Q\007\271c+$9\251_\0309\310\010\033\272\217\323\2439d\326\360\270\220Q\303\270\225\342e\272\225\305\r:iD<8@\236\320\270\270d\243\271\267\367\335\267\236\215\2309\215\004\027\270!\317a9\031x\003\272\365YP\272S\252\256\271\213X$\271\342\246\352\271\'8\006\270Zn\364\2702\362S\2721\023\2559#\031\330\270\321\316\003\272d\2226\272y\352\216:\207\315b\271\325Cq\272*\0163\272l\353\0278C3\254\271\225\322\342\270\020\321\247\267R\243y\267\234d\225\267\276\315\234\270\370\242E:\375\312&\271\343\025\t:\221\353\3138}\027\35291\373\2149\332\251\004:\206\205\224:t\205\033\270xWI9\313{Z:\340\244\3348+x\227\2720\266X\271n\2500\271\263Ov8,[\224\271\344\260\201:\377\n\200:\223\014:\272\263)\321\271\265\202\3579\244\225\266\271|)=\271\260Q\266\271\343\362\':\010\373\005\270!5\016:\375\206}\271\210\307\2639\314p\000\271\306\366\2628\032\021A\271k\334\356\270}\244,\270\030Z\3378\037\207\2649\216\242\333\271\002b\025\272\357\333\030:^\260h:mJ\3359n}\032:\217\217$\271\210\201\2169<cI9\353\233\2438Y\265\317\271M\3071\272\354J\022:J\326\2619\223b\230\271\375d%9\264\263U\271\312\364\3239\316\313u9@\234/:\362\346o8\035X\022\270\245\321\2377\376\240\244:k[\2409\006\037U8*\342\3349\226\201\327\270#(\'9\205\217\3369\313e\233\272x\207\020\272\255\251\022\272\342\324\030\271Z/\033\271S~I9Q\255\24090\203,:\272+\023\271;0;\271\262\014[\271\t+\322\271\244\246\2668|\005\r\272\335`\017:\305\223\0009P\305\2719/\0005:C\025\206\272b&}\270\256\270\214\271P(T9Jf\3109\244\020R9\273\326\2048u\334\234\270\017\037\3329\020bP7\031lD:c\304c\271\230oV:\n:\013\272\316a\3738\221X\0278\225<\244\271\210:\033\272\231\302\3239\265\263\3504eo\32590UR:_\264\2339\322n\3469G\2629\271\016\223\037:a\321+:>|\2059\364\326\302\270\201\276\3037\252\210\2168\344e\\9\2655%\266\276\332\006\271K\302\224\270\355\307/6\272\316\016:\236\337\334\271lac\272\275\r.\272*l\3258@\277\0019\223c\001:\215z\221:\014\327\216\270\357&\3669\002\030\205\271al\3779\377\016\0059\241\356\014\272e\317\0379_\"i9\321\252,9\242n\372\270\022\034+:N\247\005:f\325\23391\351\246\271\027\2265\271\313 \3049w\211J:\320\226\3519\332+\240\270D\341\2248\205\275\014:\017\207\017\272\340l#\272J\201\3649\221\231\2038\314\321\313\271\027\367\265\270Q5\027\271\331\014k9\204\002V\270]0K9\353\301A:m\003\2738\331\0225\270&\033i\271\203\\U\271d\324=\270,\224\3679-\371\2739+\036+\272H\253Y:\3145}\271\231`{\271\316\345\227\270\245\331o:\217\206\2209\207\214\3278\013\230\205\271{L\25387\212\203:\220\346\3259\351\377H\271\205/\034\271%=\2159$\335\3269\266\032\001\272\001Q89\351\240\2359\027!\030:O\347\020\272}\277\204:tQ:\271uQR\271i]y\2713 \2219k\317\330\2710;B:@\344X\271\255\270g8\321\264\000\272P7u\271\204\326f\272^\211T\267c\256D\270\330\000Q\272\'\374\247\270|ur9\262\364\025:\240}\334\271f\334P\272\262\356b\270\2438C:@*\017\271\301qS\271\311\220\005:\237\2233\271\231C%\271\265\016\241\271\347\316\\8\346\224\007\267\254B\2428]\33198\'\2249\272 